{
  "version": "1.0",
  "truncation": null,
  "padding": null,
  "added_tokens": [
    {
      "id": 0,
      "content": "<|endoftext|>",
      "single_word": false,
      "lstrip": false,
      "rstrip": false,
      "normalized": false,
      "special": true
    },
    {
      "id": 1,
      "content": "<|padding|>",
      "single_word": false,
      "lstrip": false,
      "rstrip": false,
      "normalized": false,
      "special": true
    }
  ],
  "normalizer": null,
  "pre_tokenizer": {
    "type": "ByteLevel",
    "add_prefix_space": false,
    "trim_offsets": true,
    "use_regex": true
  },
  "post_processor": null,
  "decoder": {
    "type": "ByteLevel",
    "add_prefix_space": true,
    "trim_offsets": true,
    "use_regex": true
  },
  "model": {
    "type": "BPE",
    "dropout": null,
    "unk_token": null,
    "continuing_subword_prefix": null,
    "end_of_word_suffix": null,
    "fuse_unk": false,
    "byte_fallback": false,
    "ignore_merges": false,
    "vocab": {
      "<|endoftext|>": 0,
      "<|padding|>": 1,
      "!": 2,
      "\"": 3,
      "#": 4,
      "$": 5,
      "%": 6,
      "&": 7,
      "'": 8,
      "(": 9,
      ")": 10,
      "*": 11,
      "+": 12,
      ",": 13,
      "-": 14,
      ".": 15,
      "/": 16,
      "0": 17,
      "1": 18,
      "2": 19,
      "3": 20,
      "4": 21,
      "5": 22,
      "6": 23,
      "7": 24,
      "8": 25,
      "9": 26,
      ":": 27,
      ";": 28,
      "<": 29,
      "=": 30,
      ">": 31,
      "?": 32,
      "@": 33,
      "A": 34,
      "B": 35,
      "C": 36,
      "D": 37,
      "E": 38,
      "F": 39,
      "G": 40,
      "H": 41,
      "I": 42,
      "J": 43,
      "K": 44,
      "L": 45,
      "M": 46,
      "N": 47,
      "O": 48,
      "P": 49,
      "Q": 50,
      "R": 51,
      "S": 52,
      "T": 53,
      "U": 54,
      "V": 55,
      "W": 56,
      "X": 57,
      "Y": 58,
      "Z": 59,
      "[": 60,
      "\\": 61,
      "]": 62,
      "^": 63,
      "_": 64,
      "`": 65,
      "a": 66,
      "b": 67,
      "c": 68,
      "d": 69,
      "e": 70,
      "f": 71,
      "g": 72,
      "h": 73,
      "i": 74,
      "j": 75,
      "k": 76,
      "l": 77,
      "m": 78,
      "n": 79,
      "o": 80,
      "p": 81,
      "q": 82,
      "r": 83,
      "s": 84,
      "t": 85,
      "u": 86,
      "v": 87,
      "w": 88,
      "x": 89,
      "y": 90,
      "z": 91,
      "{": 92,
      "|": 93,
      "}": 94,
      "~": 95,
      "¡": 96,
      "¢": 97,
      "£": 98,
      "¤": 99,
      "¥": 100,
      "¦": 101,
      "§": 102,
      "¨": 103,
      "©": 104,
      "ª": 105,
      "«": 106,
      "¬": 107,
      "®": 108,
      "¯": 109,
      "°": 110,
      "±": 111,
      "²": 112,
      "³": 113,
      "´": 114,
      "µ": 115,
      "¶": 116,
      "·": 117,
      "¸": 118,
      "¹": 119,
      "º": 120,
      "»": 121,
      "¼": 122,
      "½": 123,
      "¾": 124,
      "¿": 125,
      "Â": 126,
      "Ã": 127,
      "Ä": 128,
      "Å": 129,
      "Æ": 130,
      "Ç": 131,
      "È": 132,
      "É": 133,
      "Ê": 134,
      "Ë": 135,
      "Ì": 136,
      "Í": 137,
      "Î": 138,
      "Ï": 139,
      "Ð": 140,
      "Ñ": 141,
      "Ò": 142,
      "Ó": 143,
      "Ô": 144,
      "Õ": 145,
      "Ö": 146,
      "×": 147,
      "Ø": 148,
      "Ù": 149,
      "Ú": 150,
      "Û": 151,
      "Ü": 152,
      "Ý": 153,
      "Þ": 154,
      "ß": 155,
      "à": 156,
      "á": 157,
      "â": 158,
      "ã": 159,
      "ä": 160,
      "å": 161,
      "æ": 162,
      "ç": 163,
      "è": 164,
      "é": 165,
      "ê": 166,
      "ë": 167,
      "ì": 168,
      "í": 169,
      "î": 170,
      "ï": 171,
      "ð": 172,
      "ñ": 173,
      "ò": 174,
      "ó": 175,
      "ô": 176,
      "Ċ": 177,
      "Ġ": 178,
      "ġ": 179,
      "Ģ": 180,
      "ģ": 181,
      "Ĥ": 182,
      "ĥ": 183,
      "Ħ": 184,
      "ħ": 185,
      "Ĩ": 186,
      "ĩ": 187,
      "Ī": 188,
      "ī": 189,
      "Ĭ": 190,
      "ĭ": 191,
      "Į": 192,
      "į": 193,
      "İ": 194,
      "ı": 195,
      "Ĳ": 196,
      "ĳ": 197,
      "Ĵ": 198,
      "ĵ": 199,
      "Ķ": 200,
      "ķ": 201,
      "ĸ": 202,
      "Ĺ": 203,
      "ĺ": 204,
      "Ļ": 205,
      "ļ": 206,
      "Ľ": 207,
      "ľ": 208,
      "Ŀ": 209,
      "ŀ": 210,
      "Ł": 211,
      "ł": 212,
      "Ń": 213,
      "Ġt": 214,
      "Ġa": 215,
      "he": 216,
      "in": 217,
      "on": 218,
      "er": 219,
      "Ġthe": 220,
      "re": 221,
      "ed": 222,
      "or": 223,
      "at": 224,
      "is": 225,
      "an": 226,
      "en": 227,
      "Ġs": 228,
      "it": 229,
      "al": 230,
      "Ġw": 231,
      "Ġo": 232,
      "ar": 233,
      "es": 234,
      "Ġc": 235,
      "nd": 236,
      "Ġb": 237,
      "Ġf": 238,
      "Ġof": 239,
      "Ġin": 240,
      "as": 241,
      "Ġp": 242,
      "ic": 243,
      "le": 244,
      "ion": 245,
      "ing": 246,
      "ou": 247,
      "Ġd": 248,
      "Ġand": 249,
      "Ġ(": 250,
      "Ġto": 251,
      "Ġm": 252,
      "om": 253,
      "ĠS": 254,
      "Ġ2": 255,
      "Ġ1": 256,
      "ĠA": 257,
      "ĠT": 258,
      "Ġh": 259,
      "ĠC": 260,
      "ent": 261,
      "il": 262,
      "Ġ*": 263,
      "us": 264,
      "Ġre": 265,
      "ol": 266,
      "ĠM": 267,
      "Ġn": 268,
      "ot": 269,
      "Ġth": 270,
      "am": 271,
      "el": 272,
      "ĠI": 273,
      "ct": 274,
      "Ġ20": 275,
      "ro": 276,
      "Ġl": 277,
      "ad": 278,
      "ch": 279,
      "ĠP": 280,
      "ĠB": 281,
      "st": 282,
      "Ġon": 283,
      "id": 284,
      "Ġis": 285,
      "et": 286,
      "ly": 287,
      "em": 288,
      "ig": 289,
      "iv": 290,
      "Ġwas": 291,
      "ur": 292,
      "ĠH": 293,
      "ation": 294,
      "Ġbe": 295,
      "Ġfor": 296,
      "im": 297,
      "ag": 298,
      "ĠD": 299,
      "ut": 300,
      "Ġe": 301,
      "ay": 302,
      "Ġas": 303,
      "ĠR": 304,
      "ce": 305,
      "ĠThe": 306,
      "ĠF": 307,
      "ist": 308,
      "ĠW": 309,
      "ir": 310,
      "ĠL": 311,
      "ow": 312,
      "Ġg": 313,
      "Ġ|": 314,
      "ĠN": 315,
      "ers": 316,
      "Ġ-": 317,
      "un": 318,
      "ĠJ": 319,
      "her": 320,
      "ia": 321,
      "ith": 322,
      "ĠG": 323,
      "ra": 324,
      "Ġ19": 325,
      "if": 326,
      "os": 327,
      "Ġby": 328,
      "ter": 329,
      "ul": 330,
      "Ġst": 331,
      "âĢ": 332,
      "and": 333,
      "ver": 334,
      "Ġan": 335,
      "ip": 336,
      "Ġthat": 337,
      "Ġwith": 338,
      "Ġde": 339,
      "Ġ:": 340,
      "ate": 341,
      "'s": 342,
      "ĠE": 343,
      "00": 344,
      "Ġit": 345,
      "ht": 346,
      "th": 347,
      "Ġal": 348,
      "Ġcon": 349,
      "ik": 350,
      "Ġwh": 351,
      "ber": 352,
      "ĠO": 353,
      "um": 354,
      "ac": 355,
      "est": 356,
      "Ġ201": 357,
      "ve": 358,
      "ld": 359,
      "Ġ\"": 360,
      "Ġat": 361,
      "rom": 362,
      "op": 363,
      "ri": 364,
      "ew": 365,
      "ec": 366,
      "alk": 367,
      "ab": 368,
      "Ġhe": 369,
      "oc": 370,
      "UT": 371,
      "od": 372,
      "UTC": 373,
      "Ġnot": 374,
      "Ġcom": 375,
      "age": 376,
      "Ġar": 377,
      "our": 378,
      "âĢĵ": 379,
      "ain": 380,
      "Ġv": 381,
      "ort": 382,
      "ĠK": 383,
      "ĠU": 384,
      "ub": 385,
      "qu": 386,
      "pp": 387,
      "res": 388,
      "art": 389,
      "ity": 390,
      "ill": 391,
      "Ġor": 392,
      "se": 393,
      "Ġpro": 394,
      "Ġfrom": 395,
      "ary": 396,
      "ak": 397,
      "ĠIn": 398,
      "Ġse": 399,
      "Ġy": 400,
      "ian": 401,
      "Ġ200": 402,
      "ies": 403,
      "ud": 404,
      "ard": 405,
      "Ġr": 406,
      "all": 407,
      "ore": 408,
      "ep": 409,
      "ment": 410,
      "og": 411,
      "ated": 412,
      "Ġare": 413,
      "let": 414,
      "ap": 415,
      "ant": 416,
      "ess": 417,
      "19": 418,
      "ich": 419,
      "ould": 420,
      "Ġdis": 421,
      "ive": 422,
      "ov": 423,
      "ĠSt": 424,
      "Ġsh": 425,
      "ust": 426,
      "20": 427,
      "ction": 428,
      "Ġthis": 429,
      "nt": 430,
      "sp": 431,
      "Ġex": 432,
      "ial": 433,
      "ame": 434,
      "edia": 435,
      "Ġhis": 436,
      "talk": 437,
      "ge": 438,
      "end": 439,
      "sion": 440,
      "ember": 441,
      "ear": 442,
      "Ġ||": 443,
      "ph": 444,
      "ong": 445,
      "ĠCh": 446,
      "ex": 447,
      "ight": 448,
      "up": 449,
      "Ġ[": 450,
      "Ġch": 451,
      "Ġpl": 452,
      "tic": 453,
      "ell": 454,
      "ĠV": 455,
      "Ġ3": 456,
      "ine": 457,
      "ind": 458,
      "Ġus": 459,
      "ire": 460,
      "ect": 461,
      "Ġha": 462,
      "ure": 463,
      "ther": 464,
      "Ġ202": 465,
      "ast": 466,
      "ks": 467,
      "Ġcl": 468,
      "cl": 469,
      "ound": 470,
      "ikip": 471,
      "Ġ0": 472,
      "//": 473,
      "ory": 474,
      "ug": 475,
      "ign": 476,
      "Ġk": 477,
      "ikipedia": 478,
      "ere": 479,
      "ish": 480,
      "ost": 481,
      "ue": 482,
      "ord": 483,
      "cus": 484,
      "Ġ#": 485,
      "ĠTh": 486,
      "und": 487,
      "Ġwhich": 488,
      "ie": 489,
      "Ġad": 490,
      "org": 491,
      "Ġsp": 492,
      "Ġle": 493,
      "av": 494,
      "ran": 495,
      "tp": 496,
      "Ġhas": 497,
      "out": 498,
      "Ġab": 499,
      "are": 500,
      "Ġcont": 501,
      "://": 502,
      "uc": 503,
      "),": 504,
      "ical": 505,
      "so": 506,
      "ry": 507,
      "Ġwere": 508,
      "Ġartic": 509,
      "mer": 510,
      "Ġun": 511,
      "ĠHe": 512,
      "Ġ18": 513,
      "oug": 514,
      "ff": 515,
      "ack": 516,
      "http": 517,
      "Ġdiscus": 518,
      "Ġhave": 519,
      "ome": 520,
      "iff": 521,
      "ous": 522,
      "pl": 523,
      "Ġbut": 524,
      "edit": 525,
      "old": 526,
      "ass": 527,
      "ade": 528,
      "rit": 529,
      ").": 530,
      "Ġdiscussion": 531,
      "99": 532,
      "iz": 533,
      "ult": 534,
      "ok": 535,
      "ions": 536,
      "Ġapp": 537,
      "ĠâĢĵ": 538,
      "Ġcomp": 539,
      "ase": 540,
      "ĠIt": 541,
      "::": 542,
      "ĠMar": 543,
      "11": 544,
      "Ġpage": 545,
      "irst": 546,
      "ang": 547,
      "ount": 548,
      "ric": 549,
      "oll": 550,
      "Ġdo": 551,
      "ide": 552,
      "Ġwhe": 553,
      "ru": 554,
      "Ġ&": 555,
      "fter": 556,
      "],": 557,
      "Ġj": 558,
      "Ġalso": 559,
      "ĠY": 560,
      "ork": 561,
      "Ġ5": 562,
      "Ġyou": 563,
      "ond": 564,
      "man": 565,
      "ĠUn": 566,
      "ice": 567,
      "18": 568,
      "ence": 569,
      "12": 570,
      "com": 571,
      "10": 572,
      "ib": 573,
      "Ġarticle": 574,
      "ough": 575,
      "ĠAl": 576,
      "eb": 577,
      "ash": 578,
      "one": 579,
      "Ġone": 580,
      "erv": 581,
      "Ġdelet": 582,
      "ally": 583,
      "ile": 584,
      "Ġedit": 585,
      "Ġsu": 586,
      "les": 587,
      "Ġhad": 588,
      "ations": 589,
      "Ġ4": 590,
      "ree": 591,
      "to": 592,
      "ink": 593,
      "vi": 594,
      "Ġfirst": 595,
      "Ġac": 596,
      "nb": 597,
      "Ġpart": 598,
      "amp": 599,
      "hed": 600,
      "ces": 601,
      "rib": 602,
      "per": 603,
      "ime": 604,
      "Ġbeen": 605,
      "ens": 606,
      "wikipedia": 607,
      "Ġwho": 608,
      "over": 609,
      "Ġim": 610,
      "for": 611,
      "own": 612,
      "ational": 613,
      "Ġall": 614,
      "orn": 615,
      "nbsp": 616,
      "able": 617,
      "wo": 618,
      "Ġper": 619,
      "The": 620,
      "clud": 621,
      "ng": 622,
      "ater": 623,
      "Ġother": 624,
      "Ġtheir": 625,
      "Ġits": 626,
      "ach": 627,
      "Ġ:*": 628,
      "ĠAr": 629,
      "Ġmade": 630,
      "Ġag": 631,
      "Ġcan": 632,
      "ates": 633,
      "pr": 634,
      "17": 635,
      "act": 636,
      "Ġte": 637,
      "land": 638,
      "Ġres": 639,
      "int": 640,
      "Ġen": 641,
      "ace": 642,
      "ft": 643,
      "Ġshould": 644,
      "ition": 645,
      "aw": 646,
      "pt": 647,
      "ors": 648,
      "itle": 649,
      "13": 650,
      "ob": 651,
      "Ġinclud": 652,
      "ely": 653,
      "15": 654,
      "ont": 655,
      "ww": 656,
      "tern": 657,
      "php": 658,
      "ite": 659,
      "16": 660,
      "Ġ=": 661,
      "ubl": 662,
      "Ġwould": 663,
      "Ġme": 664,
      "index": 665,
      "Ġplay": 666,
      "rop": 667,
      "ne": 668,
      "osed": 669,
      "ail": 670,
      "14": 671,
      "'t": 672,
      "Ġup": 673,
      "ason": 674,
      "Ġher": 675,
      "Ġund": 676,
      "35": 677,
      "Ġthey": 678,
      "any": 679,
      "Ġrec": 680,
      "36": 681,
      "37": 682,
      "22": 683,
      "Ġsc": 684,
      "ool": 685,
      "40": 686,
      "Ġgr": 687,
      "Ġover": 688,
      "eg": 689,
      "ose": 690,
      "Ġyear": 691,
      "ee": 692,
      "38": 693,
      "wn": 694,
      "ited": 695,
      "Ġ6": 696,
      "Ġev": 697,
      "ents": 698,
      "Ġpr": 699,
      "fer": 700,
      "Ġtwo": 701,
      "39": 702,
      "Ġout": 703,
      "ath": 704,
      "port": 705,
      "io": 706,
      "ied": 707,
      "Ġpre": 708,
      "45": 709,
      "ild": 710,
      "ark": 711,
      "Ġbec": 712,
      "ood": 713,
      "ĠAs": 714,
      "Ġabout": 715,
      "ock": 716,
      "Ġthere": 717,
      "30": 718,
      "ĠThis": 719,
      "Ġmore": 720,
      "25": 721,
      "ican": 722,
      "Ġnew": 723,
      "ser": 724,
      "ĠCom": 725,
      "ĠâĢ": 726,
      "ward": 727,
      "oy": 728,
      "hip": 729,
      "ake": 730,
      "Ġadd": 731,
      "ĠJan": 732,
      "ober": 733,
      "Ġtalk": 734,
      "ased": 735,
      "Ġafter": 736,
      "Ġ17": 737,
      "Ġsub": 738,
      "ĠMay": 739,
      "..": 740,
      "46": 741,
      "Ġso": 742,
      "Ġcomm": 743,
      "vel": 744,
      "Ġ199": 745,
      "ings": 746,
      "Ġqu": 747,
      "inal": 748,
      "47": 749,
      "uring": 750,
      "ah": 751,
      "28": 752,
      "Ġ7": 753,
      "ivers": 754,
      "ilm": 755,
      "title": 756,
      "48": 757,
      "ress": 758,
      "Ġdes": 759,
      "ict": 760,
      "Ġ**": 761,
      "ons": 762,
      "27": 763,
      "Ġsome": 764,
      "Ġdiff": 765,
      "igh": 766,
      "ĠJun": 767,
      "ance": 768,
      "ove": 769,
      "ĠNew": 770,
      "oh": 771,
      "ments": 772,
      "Ġcons": 773,
      "ject": 774,
      "Ġwork": 775,
      "view": 776,
      "Ġkn": 777,
      "26": 778,
      "itt": 779,
      "29": 780,
      "Ġ15": 781,
      "we": 782,
      "chool": 783,
      "ollow": 784,
      "ote": 785,
      "ike": 786,
      "Ġ10": 787,
      "Ġ16": 788,
      "Ġany": 789,
      "gr": 790,
      "use": 791,
      "irect": 792,
      "ept": 793,
      "Ġne": 794,
      "ĠDec": 795,
      "ĠAug": 796,
      "ĠNov": 797,
      "lect": 798,
      "ateg": 799,
      "Ġtime": 800,
      "ĠOct": 801,
      "Ġoff": 802,
      "ics": 803,
      "oup": 804,
      "Ġno": 805,
      "Ġ8": 806,
      "49": 807,
      "form": 808,
      "ĠAmer": 809,
      "Ġact": 810,
      "Ġ--": 811,
      "ick": 812,
      "red": 813,
      "Ġind": 814,
      "Ġatt": 815,
      "Ġro": 816,
      "Ġunder": 817,
      "Ġinto": 818,
      "oint": 819,
      "],[": 820,
      "ced": 821,
      "Ġrel": 822,
      "ĠApr": 823,
      "way": 824,
      "Ġonly": 825,
      "ook": 826,
      "Ġlist": 827,
      "ual": 828,
      "Ġ198": 829,
      "urn": 830,
      "ey": 831,
      "ĠSh": 832,
      "50": 833,
      "ndash": 834,
      "uary": 835,
      "uch": 836,
      "orld": 837,
      "olog": 838,
      "ĠJu": 839,
      "ince": 840,
      "ision": 841,
      "oot": 842,
      "eop": 843,
      "ener": 844,
      "ix": 845,
      "Ġpres": 846,
      "ty": 847,
      "ral": 848,
      "Ġpol": 849,
      "lease": 850,
      "Ġra": 851,
      "\",": 852,
      "Ġfollow": 853,
      "],[-": 854,
      "ĠOn": 855,
      "Ġmod": 856,
      "Ġshe": 857,
      "ans": 858,
      "Ġbet": 859,
      "eptember": 860,
      "ific": 861,
      "Ġdeletion": 862,
      "ĠLe": 863,
      "ren": 864,
      "ball": 865,
      "ĠAugust": 866,
      "ĠJanuary": 867,
      "200": 868,
      "az": 869,
      "Ġloc": 870,
      "ĠFeb": 871,
      "ished": 872,
      "Ġsec": 873,
      "Ġrem": 874,
      "Ġwhen": 875,
      "che": 876,
      "Ġ.": 877,
      "ef": 878,
      "ĠMarch": 879,
      "oldid": 880,
      "du": 881,
      "other": 882,
      "diff": 883,
      "ĠSp": 884,
      "ĠAn": 885,
      "ĠSeptember": 886,
      "Ġsour": 887,
      "Ġthem": 888,
      "33": 889,
      "istory": 890,
      "Ġthan": 891,
      "eople": 892,
      "ĠOctober": 893,
      "Ġagain": 894,
      "orth": 895,
      "ann": 896,
      "cess": 897,
      "very": 898,
      "ĠJuly": 899,
      "att": 900,
      "Ġreg": 901,
      "Ġtr": 902,
      "oth": 903,
      "ating": 904,
      "ck": 905,
      "oun": 906,
      "Ġpubl": 907,
      "outh": 908,
      "Ġwe": 909,
      "ble": 910,
      "ident": 911,
      "44": 912,
      "ext": 913,
      "Ġserv": 914,
      "Ġif": 915,
      "ames": 916,
      "Ġ9": 917,
      "ĠZ": 918,
      "Ġbl": 919,
      "lete": 920,
      "gan": 921,
      "ĠJune": 922,
      "56": 923,
      "aj": 924,
      "als": 925,
      "ĠApril": 926,
      "ins": 927,
      "Ġass": 928,
      "Ġ197": 929,
      "ily": 930,
      "Ġ12": 931,
      "Ġhim": 932,
      "58": 933,
      "Ġwhere": 934,
      "Ġtra": 935,
      "arly": 936,
      "ĠNovember": 937,
      "57": 938,
      "ative": 939,
      "ĠAf": 940,
      "Ġinter": 941,
      "iki": 942,
      "ier": 943,
      "ement": 944,
      "ived": 945,
      "Ġam": 946,
      "iel": 947,
      "ĠDecember": 948,
      "https": 949,
      "Ã©": 950,
      "Ġthen": 951,
      "ife": 952,
      "Ġ14": 953,
      "Ġfilm": 954,
      "ts": 955,
      "34": 956,
      "Ġclosed": 957,
      "ruary": 958,
      "ton": 959,
      "ĠAmerican": 960,
      "Ġcre": 961,
      "ĠNo": 962,
      "Ġteam": 963,
      "Ġwill": 964,
      "ĠCl": 965,
      "Ġcol": 966,
      "ĠInd": 967,
      "erson": 968,
      "ern": 969,
      "32": 970,
      "Ġ2008": 971,
      "Ġdeb": 972,
      "ategory": 973,
      "iversity": 974,
      "ĠFebruary": 975,
      "Ġbel": 976,
      "raph": 977,
      "Ġused": 978,
      "59": 979,
      "min": 980,
      "Ġmost": 981,
      "Ġco": 982,
      "42": 983,
      "Ġ13": 984,
      "air": 985,
      "duc": 986,
      "eat": 987,
      "ify": 988,
      "ĠRe": 989,
      "rough": 990,
      "86": 991,
      "Ġseason": 992,
      "ism": 993,
      "pport": 994,
      "Ġbu": 995,
      "ank": 996,
      "Ġbeing": 997,
      "Ġfound": 998,
      "ten": 999,
      "Ġspec": 1000,
      "eep": 1001,
      "ĠWikipedia": 1002,
      "ween": 1003,
      "Ġform": 1004,
      "ox": 1005,
      "87": 1006,
      "arch": 1007,
      "Ġsuch": 1008,
      "oss": 1009,
      "ility": 1010,
      "Ġreview": 1011,
      "\".": 1012,
      "Ġ2007": 1013,
      "Ġgo": 1014,
      "ered": 1015,
      "Ġ196": 1016,
      "arg": 1017,
      "cy": 1018,
      "Ġmay": 1019,
      "Ġyears": 1020,
      "inn": 1021,
      "ss": 1022,
      "Ġ21": 1023,
      "ale": 1024,
      "ll": 1025,
      "ouse": 1026,
      "eth": 1027,
      "Ġret": 1028,
      "Ġ11": 1029,
      "ohn": 1030,
      "ever": 1031,
      "Ġser": 1032,
      "80": 1033,
      "iss": 1034,
      "ages": 1035,
      "fore": 1036,
      "the": 1037,
      "Ġ|-": 1038,
      "Ġsy": 1039,
      "0000": 1040,
      "ĠShe": 1041,
      "Ġ2009": 1042,
      "Ġ22": 1043,
      "ĠSc": 1044,
      "ett": 1045,
      "arl": 1046,
      "elf": 1047,
      "ina": 1048,
      "ĠQ": 1049,
      "ĠWP": 1050,
      "Ġinv": 1051,
      "emb": 1052,
      "ĠCol": 1053,
      "Ġpeople": 1054,
      "Ġduring": 1055,
      "Ġcent": 1056,
      "Ġdef": 1057,
      "overn": 1058,
      "ities": 1059,
      "Ġent": 1060,
      "ars": 1061,
      "ines": 1062,
      "cc": 1063,
      "Ġ23": 1064,
      "ĠWh": 1065,
      "43": 1066,
      "Ġbetween": 1067,
      "89": 1068,
      "elete": 1069,
      "Ġ:::": 1070,
      "Ġarch": 1071,
      "Ġbr": 1072,
      "ious": 1073,
      "ays": 1074,
      "usic": 1075,
      "rans": 1076,
      "ĠUnited": 1077,
      "Ġfl": 1078,
      "ĠIs": 1079,
      "ĠPro": 1080,
      "Ġmy": 1081,
      "ĠEng": 1082,
      "Ġstud": 1083,
      "ĠFor": 1084,
      "Ġend": 1085,
      "oci": 1086,
      "Ġnum": 1087,
      "ley": 1088,
      "77": 1089,
      "Ġjust": 1090,
      "ause": 1091,
      "Ġthrough": 1092,
      "ise": 1093,
      "reat": 1094,
      "ĠGr": 1095,
      "Ġ2010": 1096,
      "iam": 1097,
      "Ġsecond": 1098,
      "Ġname": 1099,
      "06": 1100,
      "omin": 1101,
      "Ġresult": 1102,
      "Ġprov": 1103,
      "Ġthree": 1104,
      "Ġman": 1105,
      "Ġwrit": 1106,
      "ular": 1107,
      "Ġwell": 1108,
      "Ġint": 1109,
      "urther": 1110,
      "ĠAd": 1111,
      "lection": 1112,
      "quent": 1113,
      "Ġfollowing": 1114,
      "000": 1115,
      "55": 1116,
      "Ġlike": 1117,
      "Ġrep": 1118,
      "Ġsign": 1119,
      "Ġedits": 1120,
      "ĠUser": 1121,
      "cept": 1122,
      "ional": 1123,
      ".\"": 1124,
      "Ġph": 1125,
      "ather": 1126,
      "tain": 1127,
      "ury": 1128,
      "ĠUniversity": 1129,
      "Ġwhat": 1130,
      "arn": 1131,
      "oo": 1132,
      "enn": 1133,
      "24": 1134,
      "uk": 1135,
      "der": 1136,
      "Ġdist": 1137,
      "23": 1138,
      "ague": 1139,
      "Ġuse": 1140,
      "rict": 1141,
      "09": 1142,
      "Ġrequ": 1143,
      "ĠâĢĶ": 1144,
      "07": 1145,
      "fl": 1146,
      "Ġrecord": 1147,
      "Ġcomments": 1148,
      "ĠBr": 1149,
      "ĠBl": 1150,
      "Ġop": 1151,
      "Ġlater": 1152,
      "ograph": 1153,
      "ull": 1154,
      "ĠPr": 1155,
      "its": 1156,
      "Ġmov": 1157,
      "Ġ::": 1158,
      "Ġ'": 1159,
      "Ġsee": 1160,
      "Ġexp": 1161,
      "ev": 1162,
      "Ġgroup": 1163,
      "Ġ2006": 1164,
      "son": 1165,
      "ined": 1166,
      "ets": 1167,
      "ribut": 1168,
      "Ġfam": 1169,
      "Ġdoes": 1170,
      "Ġrele": 1171,
      "Ġagainst": 1172,
      "bum": 1173,
      "41": 1174,
      "Ġlead": 1175,
      "Ġcount": 1176,
      "Ġbefore": 1177,
      "erm": 1178,
      "Ġfurther": 1179,
      "Ġgu": 1180,
      "ai": 1181,
      "Ġ2020": 1182,
      "ield": 1183,
      "Ġsing": 1184,
      "sh": 1185,
      "88": 1186,
      "hen": 1187,
      "ĠCon": 1188,
      "Ġ2011": 1189,
      "ĠJohn": 1190,
      "ĠComm": 1191,
      "66": 1192,
      "ax": 1193,
      "velop": 1194,
      "ĠAt": 1195,
      "ists": 1196,
      "Ġown": 1197,
      "Ġpop": 1198,
      "uth": 1199,
      "Ġknown": 1200,
      "Ġsame": 1201,
      "Ġcall": 1202,
      "Ġinc": 1203,
      "aid": 1204,
      "Ġacc": 1205,
      "Ġ2024": 1206,
      "Ġ2021": 1207,
      "--": 1208,
      "ures": 1209,
      "ĠPh": 1210,
      "Ġmany": 1211,
      "ĠPl": 1212,
      "sequent": 1213,
      "Ġback": 1214,
      "yle": 1215,
      "Ġshow": 1216,
      "empl": 1217,
      "ĠPlease": 1218,
      "iver": 1219,
      "ootball": 1220,
      "erman": 1221,
      "ribs": 1222,
      "Ġhow": 1223,
      "Ġ2012": 1224,
      "Ġpoint": 1225,
      "Ġimp": 1226,
      "ower": 1227,
      "Ġ2023": 1228,
      "Ġinst": 1229,
      "ved": 1230,
      "right": 1231,
      "ually": 1232,
      "Ġgener": 1233,
      "Ġyour": 1234,
      "lish": 1235,
      "ĠFran": 1236,
      "Ġmain": 1237,
      "col": 1238,
      "yp": 1239,
      "79": 1240,
      "row": 1241,
      "Ġcould": 1242,
      "Ġ2015": 1243,
      "ention": 1244,
      "ator": 1245,
      "Ġ2022": 1246,
      "Ġ2016": 1247,
      "Ġthese": 1248,
      "Ġdec": 1249,
      "ible": 1250,
      "Ġneed": 1251,
      "Ġincluding": 1252,
      "ĠWorld": 1253,
      "ired": 1254,
      "Ġboth": 1255,
      "Ġwhile": 1256,
      "ys": 1257,
      "te": 1258,
      "eng": 1259,
      "76": 1260,
      "Ġ2013": 1261,
      "iew": 1262,
      "ave": 1263,
      "Ġschool": 1264,
      "Ġdirect": 1265,
      "Ġob": 1266,
      "Ġ([": 1267,
      "Ġ2019": 1268,
      "Ġest": 1269,
      "Ġ2025": 1270,
      "Ġ2014": 1271,
      "of": 1272,
      "ropri": 1273,
      "by": 1274,
      "Ġfour": 1275,
      "ĠSub": 1276,
      "ues": 1277,
      "Ġorig": 1278,
      "ean": 1279,
      "Ġmon": 1280,
      "Ġdr": 1281,
      "Ġdid": 1282,
      "Ġ2017": 1283,
      "])": 1284,
      "rent": 1285,
      "raft": 1286,
      "imes": 1287,
      "ives": 1288,
      "ient": 1289,
      "53": 1290,
      "ission": 1291,
      "ural": 1292,
      "ron": 1293,
      "Ġdebate": 1294,
      "ĠOr": 1295,
      "Ġsince": 1296,
      "stem": 1297,
      "Ġlong": 1298,
      "Ġ2018": 1299,
      "eter": 1300,
      "Ġbecame": 1301,
      "Ġstr": 1302,
      "Ġdelete": 1303,
      "born": 1304,
      "oad": 1305,
      "www": 1306,
      "ĠCan": 1307,
      "urch": 1308,
      "Ġmin": 1309,
      "ract": 1310,
      "ĠNational": 1311,
      "Ġrefer": 1312,
      "52": 1313,
      "ĠStates": 1314,
      "led": 1315,
      "ĠLink": 1316,
      "atch": 1317,
      "Ġarticles": 1318,
      "cent": 1319,
      "Ġtrans": 1320,
      "arri": 1321,
      "ecial": 1322,
      "Ġcare": 1323,
      "Ġstart": 1324,
      "Ġsources": 1325,
      "ropriate": 1326,
      "til": 1327,
      "Ġhere": 1328,
      "co": 1329,
      "Ġalbum": 1330,
      "Ġbecause": 1331,
      "Ġabove": 1332,
      "amed": 1333,
      "my": 1334,
      "ĠAust": 1335,
      "51": 1336,
      "ird": 1337,
      "inks": 1338,
      "Ġreport": 1339,
      "ampions": 1340,
      "erg": 1341,
      "ology": 1342,
      "08": 1343,
      "Ġsupport": 1344,
      "ven": 1345,
      "54": 1346,
      "wiki": 1347,
      "ata": 1348,
      "Ġseries": 1349,
      "ized": 1350,
      "Ġnow": 1351,
      "Ġart": 1352,
      "ĠHow": 1353,
      "action": 1354,
      "Ġhigh": 1355,
      "Category": 1356,
      "Ġdon": 1357,
      "Ġnumber": 1358,
      "Ġchar": 1359,
      "Ġ],": 1360,
      "ĠTe": 1361,
      "Ġcap": 1362,
      "21": 1363,
      "ĠAnd": 1364,
      "Ġsur": 1365,
      "au": 1366,
      "Ġ30": 1367,
      "Sp": 1368,
      "96": 1369,
      "Ġtop": 1370,
      "ternational": 1371,
      "ĠSchool": 1372,
      "Ġsim": 1373,
      "Ġappropriate": 1374,
      "uss": 1375,
      "aking": 1376,
      "ange": 1377,
      "ott": 1378,
      "arr": 1379,
      "ĠAfter": 1380,
      "Ġincluded": 1381,
      "ĠBrit": 1382,
      "ilit": 1383,
      "ica": 1384,
      "arm": 1385,
      "Ġuntil": 1386,
      "ĠGe": 1387,
      "ĠThere": 1388,
      "ajor": 1389,
      "Ġprom": 1390,
      "ĠCount": 1391,
      "Ded": 1392,
      "itut": 1393,
      "Ġthink": 1394,
      "ret": 1395,
      "Ġuser": 1396,
      "Ġann": 1397,
      "Ġgovern": 1398,
      "ĠAll": 1399,
      "fess": 1400,
      "omen": 1401,
      "97": 1402,
      "Ġsever": 1403,
      "Ġsong": 1404,
      "rist": 1405,
      "Ġ24": 1406,
      "Ġdevelop": 1407,
      "Ġ25": 1408,
      "Ġdep": 1409,
      "ful": 1410,
      "ross": 1411,
      "ourn": 1412,
      "Ġcur": 1413,
      "Ġprop": 1414,
      "Ġpolit": 1415,
      "ium": 1416,
      "Ġpartic": 1417,
      "ically": 1418,
      "ĠEd": 1419,
      "els": 1420,
      "Ġ\\": 1421,
      "Ġ{": 1422,
      "Ġoper": 1423,
      "Ġsection": 1424,
      "ĠSouth": 1425,
      "...": 1426,
      "Ġwon": 1427,
      "Ġresp": 1428,
      "lp": 1429,
      "Ġperson": 1430,
      "Ġred": 1431,
      "31": 1432,
      "resent": 1433,
      "Ġpublic": 1434,
      "ior": 1435,
      "ĠGerman": 1436,
      "Ġappear": 1437,
      "ony": 1438,
      "Ġ26": 1439,
      "Ġfeat": 1440,
      "85": 1441,
      "ital": 1442,
      "pg": 1443,
      "ats": 1444,
      "ĠMan": 1445,
      "Ġrece": 1446,
      "St": 1447,
      "Ġoffic": 1448,
      "undo": 1449,
      "wards": 1450,
      "ured": 1451,
      "oard": 1452,
      "ister": 1453,
      "Ġmodify": 1454,
      "Ġfin": 1455,
      "Ġplayed": 1456,
      "Ġvar": 1457,
      "Ġdiffer": 1458,
      "ĠWar": 1459,
      "aim": 1460,
      "Ġhistory": 1461,
      "mp": 1462,
      "eed": 1463,
      "90": 1464,
      "af": 1465,
      "ĠEx": 1466,
      "Ġcommun": 1467,
      "lected": 1468,
      "Ġiss": 1469,
      "lev": 1470,
      "ĠSubsequent": 1471,
      "Ġstate": 1472,
      "ences": 1473,
      "Ġreleased": 1474,
      "ĠCent": 1475,
      "Ġsm": 1476,
      "Ġlife": 1477,
      "read": 1478,
      "Ġcover": 1479,
      "Ġrun": 1480,
      "Ġplace": 1481,
      "Ġ27": 1482,
      "84": 1483,
      "gram": 1484,
      "Ġconst": 1485,
      "Ġmusic": 1486,
      "ĠDe": 1487,
      "Ġformer": 1488,
      "Ġarea": 1489,
      "ared": 1490,
      "ving": 1491,
      "Ġvery": 1492,
      "ĠPol": 1493,
      "Ġmake": 1494,
      "Ġnomin": 1495,
      "83": 1496,
      "Ġext": 1497,
      "yl": 1498,
      "Ġbuild": 1499,
      "Ġopen": 1500,
      "Ġeven": 1501,
      "oman": 1502,
      "such": 1503,
      "ants": 1504,
      "Ġseveral": 1505,
      "ĠEu": 1506,
      "ulation": 1507,
      "vious": 1508,
      "ised": 1509,
      "ampionship": 1510,
      "amb": 1511,
      "con": 1512,
      "jpg": 1513,
      "Ġ28": 1514,
      "aug": 1515,
      "ĠSe": 1516,
      "05": 1517,
      "93": 1518,
      "=\"": 1519,
      "Ġorgan": 1520,
      "Ġsystem": 1521,
      "Ġgame": 1522,
      "ĠGu": 1523,
      "ĠAm": 1524,
      "ected": 1525,
      "Ġdesign": 1526,
      "chn": 1527,
      "Ġcontin": 1528,
      "de": 1529,
      "ought": 1530,
      "Ġright": 1531,
      "por": 1532,
      "ĠNorth": 1533,
      "rel": 1534,
      "cont": 1535,
      "Ġhelp": 1536,
      "itions": 1537,
      "ruct": 1538,
      "ience": 1539,
      ";&": 1540,
      "ooks": 1541,
      "sc": 1542,
      "Ġprodu": 1543,
      "Ġfamily": 1544,
      "angu": 1545,
      "lege": 1546,
      "Ġclass": 1547,
      "urg": 1548,
      "ugg": 1549,
      "ended": 1550,
      "Ġ2005": 1551,
      "ĠAss": 1552,
      "istor": 1553,
      "Ġknow": 1554,
      "ided": 1555,
      "anc": 1556,
      "03": 1557,
      "rip": 1558,
      "Ġcalled": 1559,
      "Ġwww": 1560,
      "82": 1561,
      "orks": 1562,
      "ability": 1563,
      "iving": 1564,
      "ode": 1565,
      "Ġmed": 1566,
      "04": 1567,
      "ĠIf": 1568,
      "Ġdesc": 1569,
      "road": 1570,
      "Ġ29": 1571,
      "ilitary": 1572,
      "ety": 1573,
      "01": 1574,
      "ae": 1575,
      "ĠWill": 1576,
      "ĠYou": 1577,
      "ery": 1578,
      "formation": 1579,
      "Ġadded": 1580,
      "Ġreturn": 1581,
      "Ġfootball": 1582,
      "orm": 1583,
      "Ġbelow": 1584,
      "ĠYork": 1585,
      "Ġpost": 1586,
      "ĠThey": 1587,
      "}}": 1588,
      "ĠRep": 1589,
      "Ġalign": 1590,
      "Ã¡": 1591,
      "Ġeff": 1592,
      "yn": 1593,
      "ĠAustral": 1594,
      "Ġ;": 1595,
      "ivision": 1596,
      "ography": 1597,
      "Ġhead": 1598,
      "Ġstat": 1599,
      "ians": 1600,
      "med": 1601,
      "âĢĻ": 1602,
      "bl": 1603,
      "ted": 1604,
      "ality": 1605,
      "Ġcareer": 1606,
      "ung": 1607,
      "reen": 1608,
      "Ġlink": 1609,
      "not": 1610,
      "Ġestab": 1611,
      "Ġstyle": 1612,
      "Ġpass": 1613,
      "Ġthose": 1614,
      "color": 1615,
      "02": 1616,
      "lex": 1617,
      "ĠBritish": 1618,
      "Ġsuc": 1619,
      "ĠLeague": 1620,
      "Ġcity": 1621,
      "ham": 1622,
      "hes": 1623,
      "vers": 1624,
      "Ġem": 1625,
      "uthor": 1626,
      "Ġeach": 1627,
      "ane": 1628,
      "Ġconsid": 1629,
      "Ġfind": 1630,
      "'m": 1631,
      "embers": 1632,
      "Ġsom": 1633,
      "ĠUS": 1634,
      "ored": 1635,
      "inc": 1636,
      "ified": 1637,
      "ize": 1638,
      "Ġcle": 1639,
      "9999": 1640,
      "Talk": 1641,
      "ĠX": 1642,
      "idd": 1643,
      "Ġmajor": 1644,
      "ices": 1645,
      "67": 1646,
      "Ġway": 1647,
      "ĠFl": 1648,
      "ĠCo": 1649,
      "Ġlast": 1650,
      "ĠHis": 1651,
      "Ġvers": 1652,
      "Ġcharact": 1653,
      "ĠState": 1654,
      "Ġgood": 1655,
      "rat": 1656,
      "ival": 1657,
      "Ġstill": 1658,
      "ĠCity": 1659,
      "Ġearly": 1660,
      "Ġrest": 1661,
      "me": 1662,
      "ĠEurop": 1663,
      "olut": 1664,
      "Ch": 1665,
      "ĠCounty": 1666,
      "Ġmuch": 1667,
      "uck": 1668,
      "Ġseem": 1669,
      "Delete": 1670,
      "osition": 1671,
      "duced": 1672,
      "Ġread": 1673,
      "sk": 1674,
      "Ġnon": 1675,
      "98": 1676,
      "Ġnear": 1677,
      "ĠAb": 1678,
      "aced": 1679,
      "ĠEnglish": 1680,
      "ĠComp": 1681,
      "ĠII": 1682,
      "ĠKing": 1683,
      "iven": 1684,
      "ilt": 1685,
      "ves": 1686,
      "ĠEl": 1687,
      "Ġpar": 1688,
      "aster": 1689,
      "Ġref": 1690,
      "Ġkeep": 1691,
      "Ġremain": 1692,
      "Ar": 1693,
      "ately": 1694,
      "Ġcour": 1695,
      "Ġsaid": 1696,
      "Ġlog": 1697,
      "ĠReg": 1698,
      "Ġeng": 1699,
      "Ġchild": 1700,
      "leg": 1701,
      "Ġcrit": 1702,
      "ene": 1703,
      "ask": 1704,
      "Ġbased": 1705,
      "Ġevery": 1706,
      "Ġed": 1707,
      "Ġstand": 1708,
      "ĠBe": 1709,
      "ounc": 1710,
      "Ġleg": 1711,
      "akes": 1712,
      "Ġclub": 1713,
      "ĠHowever": 1714,
      "Ġlocal": 1715,
      "Ġconc": 1716,
      "ĠMc": 1717,
      "ensus": 1718,
      "ued": 1719,
      "ĠTr": 1720,
      "side": 1721,
      "Ġcompet": 1722,
      "ground": 1723,
      "Ġair": 1724,
      "page": 1725,
      "Ġ,": 1726,
      "rew": 1727,
      "Ġcompany": 1728,
      "ster": 1729,
      "ison": 1730,
      "aps": 1731,
      "Ġmember": 1732,
      "ĠMin": 1733,
      "Ġalong": 1734,
      "Ġadv": 1735,
      "Ġgovernment": 1736,
      "ert": 1737,
      "Ġfact": 1738,
      "Ġterm": 1739,
      "Ġfinal": 1740,
      "Ġheld": 1741,
      "Ġprogram": 1742,
      "ales": 1743,
      "Ġdifferent": 1744,
      "Ġocc": 1745,
      "ze": 1746,
      "tion": 1747,
      "htm": 1748,
      "ana": 1749,
      "Ġcor": 1750,
      "iness": 1751,
      "Ġrequest": 1752,
      "Ġsingle": 1753,
      "ped": 1754,
      "Ġmet": 1755,
      "Ġanother": 1756,
      "Th": 1757,
      "que": 1758,
      "apan": 1759,
      "Ġsl": 1760,
      "Ġreason": 1761,
      "ama": 1762,
      "ada": 1763,
      "ature": 1764,
      "95": 1765,
      "ĠChrist": 1766,
      "Ġclaim": 1767,
      "ĠRes": 1768,
      "Ġcurrent": 1769,
      "Ġevent": 1770,
      "Ġsmall": 1771,
      "app": 1772,
      "ĠCal": 1773,
      "ĠCar": 1774,
      "ĠBar": 1775,
      "94": 1776,
      "Ġbegan": 1777,
      "ling": 1778,
      "ument": 1779,
      "search": 1780,
      "line": 1781,
      "Ġaround": 1782,
      "ĠSw": 1783,
      "ories": 1784,
      "Ġnamed": 1785,
      "ctions": 1786,
      "eek": 1787,
      "Ġprofess": 1788,
      "iod": 1789,
      "Ġelection": 1790,
      "ĠPort": 1791,
      "Ġworld": 1792,
      "92": 1793,
      "Ġdue": 1794,
      "ides": 1795,
      "isc": 1796,
      "Ġold": 1797,
      "Ġborn": 1798,
      "alth": 1799,
      "78": 1800,
      "75": 1801,
      "In": 1802,
      "ese": 1803,
      "ara": 1804,
      "):": 1805,
      "Ġlaw": 1806,
      "ense": 1807,
      "Ġcase": 1808,
      "ush": 1809,
      "Ġposs": 1810,
      "ĠDist": 1811,
      "aint": 1812,
      "ording": 1813,
      "ches": 1814,
      "Ġtitle": 1815,
      "Ġtown": 1816,
      "Ġel": 1817,
      "Ġnational": 1818,
      "Ġmembers": 1819,
      "ially": 1820,
      "adem": 1821,
      "ris": 1822,
      "Ġexpl": 1823,
      "ody": 1824,
      "ald": 1825,
      "Ġtyp": 1826,
      "Ġland": 1827,
      "Ġleft": 1828,
      "Ġadmin": 1829,
      "Ġline": 1830,
      "emplate": 1831,
      "ization": 1832,
      "ĠPart": 1833,
      "Ġstation": 1834,
      "epend": 1835,
      "Ġsay": 1836,
      "Ġpresent": 1837,
      "ĠWest": 1838,
      "ĠPar": 1839,
      "Ġpublished": 1840,
      "illion": 1841,
      "arge": 1842,
      "Ġband": 1843,
      "ency": 1844,
      "ĠHer": 1845,
      "Ġcontribs": 1846,
      "Ġtook": 1847,
      "ration": 1848,
      "Ġimage": 1849,
      "Ġnotable": 1850,
      "Ġ100": 1851,
      "rench": 1852,
      "blem": 1853,
      "Ġchang": 1854,
      "ĠRuss": 1855,
      "ards": 1856,
      "Ġreceived": 1857,
      "aul": 1858,
      "Ġfr": 1859,
      "erved": 1860,
      "Ġinformation": 1861,
      "self": 1862,
      "day": 1863,
      "Ġdown": 1864,
      "align": 1865,
      "ively": 1866,
      "ĠChampionship": 1867,
      "aus": 1868,
      "Ġday": 1869,
      "ably": 1870,
      "Ġbook": 1871,
      "usiness": 1872,
      "back": 1873,
      "ering": 1874,
      "less": 1875,
      "ĠAir": 1876,
      "Ġproject": 1877,
      "ublic": 1878,
      "Ġvill": 1879,
      "gcolor": 1880,
      "Ġmention": 1881,
      "Ġserved": 1882,
      "Ġsubject": 1883,
      "Ġdet": 1884,
      "ĠJapan": 1885,
      "ille": 1886,
      "Ġoriginal": 1887,
      "na": 1888,
      "Ġset": 1889,
      "name": 1890,
      "Ġ01": 1891,
      "Ġlocated": 1892,
      "ĠHigh": 1893,
      "Ġcreated": 1894,
      "eak": 1895,
      "lement": 1896,
      "Ġinterest": 1897,
      "Ġwr": 1898,
      "Ġhome": 1899,
      "Ġshort": 1900,
      "ords": 1901,
      "Ġwithin": 1902,
      "rown": 1903,
      "ĠHistory": 1904,
      "Ġpo": 1905,
      "Ġsource": 1906,
      "Ġlangu": 1907,
      "Ġmoved": 1908,
      "off": 1909,
      "Ġjo": 1910,
      "ĠDav": 1911,
      "Ġbest": 1912,
      "81": 1913,
      "iet": 1914,
      "Ġche": 1915,
      "ries": 1916,
      "anks": 1917,
      "Ġav": 1918,
      "eder": 1919,
      "Ġget": 1920,
      "Ġval": 1921,
      "ĠâĢ¢": 1922,
      "Ġinclude": 1923,
      "Ġcop": 1924,
      "Ġmat": 1925,
      "Ġwithout": 1926,
      "ĠWilliam": 1927,
      "ĠSec": 1928,
      "Ġfew": 1929,
      "iable": 1930,
      "Ġdeath": 1931,
      "User": 1932,
      "Ġallow": 1933,
      "Ġsuccess": 1934,
      "Ġauthor": 1935,
      "ample": 1936,
      "ĠPer": 1937,
      "though": 1938,
      "Ġmark": 1939,
      "ner": 1940,
      "ases": 1941,
      "73": 1942,
      "Ġexper": 1943,
      "Ġcontr": 1944,
      "ining": 1945,
      "Ġrepresent": 1946,
      "ino": 1947,
      "vent": 1948,
      "par": 1949,
      "go": 1950,
      "ĠDr": 1951,
      "Ġappro": 1952,
      "Ġinvol": 1953,
      "ief": 1954,
      "Ġbgcolor": 1955,
      "ĠCup": 1956,
      "ĠEn": 1957,
      "ington": 1958,
      "Ġcentury": 1959,
      "70": 1960,
      "stitut": 1961,
      "ĠÂ": 1962,
      "umb": 1963,
      "Ġthird": 1964,
      "Ġ00": 1965,
      "69": 1966,
      "Ġmonth": 1967,
      "Ġhouse": 1968,
      "Ġcomment": 1969,
      "Ġdem": 1970,
      "Ġusing": 1971,
      "Ġconf": 1972,
      "Ġprevious": 1973,
      "Ġ2004": 1974,
      "Ġperiod": 1975,
      "ke": 1976,
      "uggest": 1977,
      "ocial": 1978,
      "ĠSy": 1979,
      "Ġproblem": 1980,
      "Ġplayer": 1981,
      "ĠLa": 1982,
      "Ġep": 1983,
      "ead": 1984,
      "60": 1985,
      "ones": 1986,
      "ĠFrench": 1987,
      "ĠInternational": 1988,
      "Ġdescrib": 1989,
      "Ġquest": 1990,
      "Ġdisc": 1991,
      "ford": 1992,
      "Special": 1993,
      "Ġproposed": 1994,
      "Ġlook": 1995,
      "reg": 1996,
      "Ġpopulation": 1997,
      "Ġaddition": 1998,
      "Ġimport": 1999,
      "Ġcamp": 2000,
      "Ġ02": 2001,
      "ecut": 2002,
      "Ġsix": 2003,
      "ler": 2004,
      "Ġrepl": 2005,
      "Ġtext": 2006,
      "br": 2007,
      "reet": 2008,
      "Ġ[//": 2009,
      "Ġcontribut": 2010,
      "oph": 2011,
      "ney": 2012,
      "Ġeduc": 2013,
      "Ġ31": 2014,
      "get": 2015,
      "rick": 2016,
      "idge": 2017,
      "be": 2018,
      "âĢĶ": 2019,
      "ouncil": 2020,
      "ĠChe": 2021,
      "esp": 2022,
      "alt": 2023,
      "iol": 2024,
      "empt": 2025,
      "ither": 2026,
      "ondon": 2027,
      "91": 2028,
      "Ġ$": 2029,
      "Ã³": 2030,
      "Ġwant": 2031,
      "Ġblock": 2032,
      "ĠSer": 2033,
      "Ġdeleted": 2034,
      "ĠAc": 2035,
      "Ġhand": 2036,
      "'ve": 2037,
      "Ġprot": 2038,
      "ĠCollege": 2039,
      "ĠPark": 2040,
      "Ġcar": 2041,
      "Ġgeneral": 2042,
      "olution": 2043,
      "Ġsent": 2044,
      "Ġla": 2045,
      "ĠRec": 2046,
      "Ġtake": 2047,
      "Ġsuggest": 2048,
      "orts": 2049,
      "ains": 2050,
      "**": 2051,
      "ness": 2052,
      "ma": 2053,
      "attle": 2054,
      "Ġfive": 2055,
      "ĠAfric": 2056,
      "lished": 2057,
      "Ġredirect": 2058,
      "ĠPhil": 2059,
      "ÃŃ": 2060,
      "oe": 2061,
      "Ġgiven": 2062,
      "wh": 2063,
      "levision": 2064,
      "Ġpolic": 2065,
      "Ġlarge": 2066,
      "Ġpromot": 2067,
      "estern": 2068,
      "ule": 2069,
      "ots": 2070,
      "74": 2071,
      "Ġhaving": 2072,
      "uman": 2073,
      "ĠDistrict": 2074,
      "ope": 2075,
      "ĠCor": 2076,
      "ĠWe": 2077,
      "Ġbuilt": 2078,
      "idence": 2079,
      "ĠSch": 2080,
      "Ġmanag": 2081,
      "ari": 2082,
      "Ġaccount": 2083,
      "user": 2084,
      "72": 2085,
      "ĠGl": 2086,
      "list": 2087,
      "Ġinf": 2088,
      "ĠFile": 2089,
      "Com": 2090,
      "html": 2091,
      "ĠAng": 2092,
      "ĠPres": 2093,
      "pe": 2094,
      "Ġview": 2095,
      "ounced": 2096,
      "Ġcomplet": 2097,
      "Ġvis": 2098,
      "arried": 2099,
      "ament": 2100,
      "Ġdied": 2101,
      "ĠAg": 2102,
      "\":": 2103,
      "riend": 2104,
      "alf": 2105,
      "after": 2106,
      "ĠOne": 2107,
      "Ġage": 2108,
      "ĠTra": 2109,
      "68": 2110,
      "Ġsum": 2111,
      "Ġ03": 2112,
      "65": 2113,
      "Ġhistor": 2114,
      "ĠHouse": 2115,
      "ĠMon": 2116,
      "uper": 2117,
      "Ġlarg": 2118,
      "ĠItal": 2119,
      "orge": 2120,
      "Ġpat": 2121,
      "oon": 2122,
      "pro": 2123,
      "han": 2124,
      "||": 2125,
      "Ġeditor": 2126,
      "Ġversion": 2127,
      "rest": 2128,
      "Ġremov": 2129,
      "Ġ:::::": 2130,
      "stand": 2131,
      "Ġequ": 2132,
      "inning": 2133,
      "ĠHar": 2134,
      "ittle": 2135,
      "related": 2136,
      "ertain": 2137,
      "ĠQu": 2138,
      "Ġcountry": 2139,
      "Ġlinks": 2140,
      "ĠNot": 2141,
      "Ġarchive": 2142,
      "Ġcommunity": 2143,
      "ĠCO": 2144,
      "eneral": 2145,
      "itted": 2146,
      "Ġopp": 2147,
      "Ġcontent": 2148,
      "64": 2149,
      "ĠDuring": 2150,
      "Ġcr": 2151,
      "ĠBut": 2152,
      "Ġmedia": 2153,
      "ched": 2154,
      "Ġbuilding": 2155,
      "Ġoverl": 2156,
      "Ġbeh": 2157,
      "ificant": 2158,
      "Ġprocess": 2159,
      "unic": 2160,
      "ĠLondon": 2161,
      "rem": 2162,
      "Ġcharacter": 2163,
      "Cl": 2164,
      "iter": 2165,
      "Ġgames": 2166,
      "Ġoften": 2167,
      "ĠRed": 2168,
      "ivil": 2169,
      "raw": 2170,
      "iber": 2171,
      "Ġwritten": 2172,
      "Ġpreserved": 2173,
      "Ġround": 2174,
      "ĠSan": 2175,
      "load": 2176,
      "ours": 2177,
      "ivid": 2178,
      "ilar": 2179,
      "tal": 2180,
      "actionedit": 2181,
      "acks": 2182,
      "eel": 2183,
      "ĠBy": 2184,
      "put": 2185,
      "Ġwar": 2186,
      "Ġspecies": 2187,
      "Ġ04": 2188,
      "View": 2189,
      "osp": 2190,
      "Ã¼": 2191,
      "Ġfail": 2192,
      "aff": 2193,
      "ander": 2194,
      "Ġdel": 2195,
      "Ġâ": 2196,
      "arent": 2197,
      "ready": 2198,
      "Ġlevel": 2199,
      "Ġworks": 2200,
      "ha": 2201,
      "Ġexample": 2202,
      "ĠArt": 2203,
      "Ġport": 2204,
      "Ġkill": 2205,
      "Ġson": 2206,
      "vert": 2207,
      "eal": 2208,
      "Ġwomen": 2209,
      "Ġled": 2210,
      "ĠMich": 2211,
      "ociation": 2212,
      "Ġter": 2213,
      "work": 2214,
      "ideo": 2215,
      "Ġrev": 2216,
      "Ġexist": 2217,
      "cul": 2218,
      "ades": 2219,
      "conom": 2220,
      "ained": 2221,
      "ĠRiver": 2222,
      "adio": 2223,
      "ĠSm": 2224,
      "Ġnotability": 2225,
      "ependent": 2226,
      "ĠIndian": 2227,
      "Ġothers": 2228,
      "Ġarg": 2229,
      "Ġmult": 2230,
      "{{": 2231,
      "Ġside": 2232,
      "ĠMy": 2233,
      "ipp": 2234,
      "val": 2235,
      "Ġestablished": 2236,
      "Ġdays": 2237,
      "Ġsk": 2238,
      "esc": 2239,
      "Ġactiv": 2240,
      "ician": 2241,
      "omb": 2242,
      "Ġannounced": 2243,
      "Ġbeg": 2244,
      "Log": 2245,
      "contribs": 2246,
      "here": 2247,
      "ols": 2248,
      "artment": 2249,
      "ĠMe": 2250,
      "ogle": 2251,
      "Ġbelie": 2252,
      "Ġpower": 2253,
      "Ġreported": 2254,
      "Ġcommon": 2255,
      "Ġprim": 2256,
      "Ġservice": 2257,
      "Ġchildren": 2258,
      "Ġperform": 2259,
      "Ġcult": 2260,
      "Ġelect": 2261,
      "Ġvillage": 2262,
      "ctor": 2263,
      "AR": 2264,
      "Ġsignificant": 2265,
      "Ġdiscussions": 2266,
      "Ġtechn": 2267,
      "now": 2268,
      "ole": 2269,
      "Ġorder": 2270,
      "ĠRoy": 2271,
      "ending": 2272,
      "Ġsit": 2273,
      "Ġfull": 2274,
      "Note": 2275,
      "ournal": 2276,
      "Ġincre": 2277,
      "Ġaff": 2278,
      "ĠMount": 2279,
      "urs": 2280,
      "ĠBel": 2281,
      "63": 2282,
      "Ġ05": 2283,
      "Ġenough": 2284,
      "Ġgl": 2285,
      "Ġnorth": 2286,
      "lin": 2287,
      "Ġreal": 2288,
      "Ġarchived": 2289,
      "Ġwin": 2290,
      "AA": 2291,
      "uel": 2292,
      "ring": 2293,
      "ffic": 2294,
      "ael": 2295,
      "100": 2296,
      "abor": 2297,
      "Ġtoo": 2298,
      "ream": 2299,
      "Ġstarted": 2300,
      "useum": 2301,
      "Ġwater": 2302,
      "mon": 2303,
      "Ġthough": 2304,
      "ĠWhen": 2305,
      "Ġmen": 2306,
      "ĠMed": 2307,
      "Bot": 2308,
      "Ġsett": 2309,
      "irl": 2310,
      "ĠTalk": 2311,
      "Ġalready": 2312,
      "pre": 2313,
      "Ġmove": 2314,
      "play": 2315,
      "ius": 2316,
      "Ġaward": 2317,
      "Ġamong": 2318,
      "ĠDep": 2319,
      "Ġvarious": 2320,
      "ĠEm": 2321,
      "ĠEast": 2322,
      "ruction": 2323,
      "Ġattempt": 2324,
      "Ġinit": 2325,
      "Ġaut": 2326,
      "Ġrole": 2327,
      "Ġ06": 2328,
      "ference": 2329,
      "cast": 2330,
      "Ġfield": 2331,
      "Ġturn": 2332,
      "Ġundo": 2333,
      "aken": 2334,
      "Ġdata": 2335,
      "ij": 2336,
      "Ġ2000": 2337,
      "Ġusers": 2338,
      "ĠEngland": 2339,
      "new": 2340,
      "era": 2341,
      "ya": 2342,
      "ps": 2343,
      "ĠDem": 2344,
      "71": 2345,
      "ĠChurch": 2346,
      "Ġbusiness": 2347,
      "Ġfather": 2348,
      "Ġtrad": 2349,
      "Ġmight": 2350,
      "Ġ51": 2351,
      "lands": 2352,
      "Ġtimes": 2353,
      "Ġdistrict": 2354,
      "atic": 2355,
      "Ġeffect": 2356,
      "Ġcategory": 2357,
      "left": 2358,
      "burg": 2359,
      "ĠChar": 2360,
      "undoafter": 2361,
      "Ġmean": 2362,
      "adu": 2363,
      "aces": 2364,
      "Ġdecl": 2365,
      "Wikipedia": 2366,
      "Ġfun": 2367,
      "Ġbas": 2368,
      "ividual": 2369,
      "upp": 2370,
      "ops": 2371,
      "Ġsouth": 2372,
      "Ġresearch": 2373,
      "ĠPal": 2374,
      "Ġconcern": 2375,
      "Ġide": 2376,
      "avy": 2377,
      "ogn": 2378,
      "Ġsite": 2379,
      "Ġweb": 2380,
      "Ġ/": 2381,
      "Ġmeet": 2382,
      "ple": 2383,
      "Ġput": 2384,
      "->": 2385,
      "Ġparticip": 2386,
      "Ġpolitical": 2387,
      "Ġ[-": 2388,
      "hern": 2389,
      "cle": 2390,
      "Ġ07": 2391,
      "thing": 2392,
      "ification": 2393,
      "62": 2394,
      "urb": 2395,
      "ĠJames": 2396,
      "ĠAcc": 2397,
      "ached": 2398,
      "ociety": 2399,
      "ĠAnt": 2400,
      "Ġ09": 2401,
      "Ġlanguage": 2402,
      "Ġnext": 2403,
      "Ġorigin": 2404,
      "ĠRober": 2405,
      "Ġfre": 2406,
      "bert": 2407,
      "Ġmag": 2408,
      "ape": 2409,
      "Ġimpro": 2410,
      "aterial": 2411,
      "Ġviol": 2412,
      "Ġsimilar": 2413,
      "ĠWith": 2414,
      "ĠIndia": 2415,
      "Ġ->": 2416,
      ".,": 2417,
      "Ġcal": 2418,
      "ĠAfD": 2419,
      "Ġseems": 2420,
      "ĠParty": 2421,
      "Ġcame": 2422,
      "ĠAct": 2423,
      "cer": 2424,
      "Ġnever": 2425,
      "ĠThat": 2426,
      "Ġhost": 2427,
      "Ġident": 2428,
      "ways": 2429,
      "Ġsupp": 2430,
      "acy": 2431,
      "Ġgen": 2432,
      "ĠAward": 2433,
      "ĠJul": 2434,
      "Ġ08": 2435,
      "ĠIm": 2436,
      "Ã¶": 2437,
      "Ġleast": 2438,
      "lic": 2439,
      "ething": 2440,
      "Ġ*:": 2441,
      "iple": 2442,
      "hel": 2443,
      "forman": 2444,
      "Ġepis": 2445,
      "Ġet": 2446,
      "Ġtotal": 2447,
      "Ġsubm": 2448,
      "Ġtri": 2449,
      "Ġadminist": 2450,
      "Ġsold": 2451,
      "Ġbre": 2452,
      "dom": 2453,
      "Ġlet": 2454,
      "Ġproper": 2455,
      "Ġmaking": 2456,
      "ĠÃ": 2457,
      "ements": 2458,
      "Ġmillion": 2459,
      "Ġbecome": 2460,
      "Pro": 2461,
      "ĠMal": 2462,
      "Ġgreat": 2463,
      "titleSpecial": 2464,
      "ĠDan": 2465,
      "iment": 2466,
      "Ġbi": 2467,
      "Ġlate": 2468,
      "Ġless": 2469,
      "Ġspecial": 2470,
      "Ġtry": 2471,
      "IN": 2472,
      "Ġmer": 2473,
      "Ġfore": 2474,
      "ĠFilm": 2475,
      "Ġposition": 2476,
      "Ġconsensus": 2477,
      "ĠVal": 2478,
      "Ġpoints": 2479,
      "Ġeditors": 2480,
      "ien": 2481,
      "Ġcit": 2482,
      "Ġrather": 2483,
      "ĠDavid": 2484,
      "ger": 2485,
      "Ġdoesn": 2486,
      "Ġwent": 2487,
      "ĠAfDed": 2488,
      "Ġbetter": 2489,
      "Ġengine": 2490,
      "Ġimportant": 2491,
      "igned": 2492,
      "aper": 2493,
      "augh": 2494,
      "ĠThom": 2495,
      "Ġphot": 2496,
      "Ġconsidered": 2497,
      "Ġtw": 2498,
      "Ġquestion": 2499,
      "van": 2500,
      "ĠEuropean": 2501,
      "ĠGo": 2502,
      "ĠThese": 2503,
      "Ġlim": 2504,
      "orthern": 2505,
      "ĠCour": 2506,
      "iron": 2507,
      "OT": 2508,
      "Ġcopy": 2509,
      "ising": 2510,
      "ĠBra": 2511,
      "ances": 2512,
      "Ġeither": 2513,
      "ĠAustralia": 2514,
      "flu": 2515,
      "iles": 2516,
      "Ġsol": 2517,
      "Ġask": 2518,
      "BC": 2519,
      "ala": 2520,
      "].": 2521,
      "Ġpri": 2522,
      "ĠPaul": 2523,
      "ming": 2524,
      "iforn": 2525,
      "ico": 2526,
      ";\"": 2527,
      "uff": 2528,
      "ĠCont": 2529,
      "Ġdebut": 2530,
      "Ġpresident": 2531,
      "Ġwrote": 2532,
      "Ġyoung": 2533,
      "ĠGeneral": 2534,
      "Ġmatch": 2535,
      "Ġattack": 2536,
      "ĠGeorge": 2537,
      "ĠDivision": 2538,
      "ĠArmy": 2539,
      "ĠFrom": 2540,
      "center": 2541,
      "Ġfac": 2542,
      "Ġprofessional": 2543,
      "Ġ2003": 2544,
      "ĠRich": 2545,
      "Ġeas": 2546,
      "aut": 2547,
      "ump": 2548,
      "ka": 2549,
      "itar": 2550,
      "field": 2551,
      "ores": 2552,
      "ym": 2553,
      "Ġmentioned": 2554,
      "Ġappoint": 2555,
      "ellow": 2556,
      "Ġdevelopment": 2557,
      "year": 2558,
      "ĠSo": 2559,
      "Ġmaterial": 2560,
      "Ġbroad": 2561,
      "Ġfree": 2562,
      "board": 2563,
      "ĠRoman": 2564,
      "Ġparty": 2565,
      "str": 2566,
      "Ġvol": 2567,
      "Ġchange": 2568,
      "upport": 2569,
      "ibr": 2570,
      "ifornia": 2571,
      "ĠAmerica": 2572,
      "ST": 2573,
      "ĠGovern": 2574,
      "ĠFirst": 2575,
      "Ġhowever": 2576,
      "Ġprob": 2577,
      "Ġsw": 2578,
      "Ġinvest": 2579,
      "Ġindividual": 2580,
      "Ġworked": 2581,
      "Ġissue": 2582,
      "Ġofficial": 2583,
      "Ġtelevision": 2584,
      "sw": 2585,
      "cher": 2586,
      "ransp": 2587,
      "Ġpract": 2588,
      "ĠPresident": 2589,
      "lymp": 2590,
      "Ġsomething": 2591,
      "ning": 2592,
      "Keep": 2593,
      "ĠNor": 2594,
      "Ġreliable": 2595,
      "ware": 2596,
      "most": 2597,
      "ĠCouncil": 2598,
      "ms": 2599,
      "olic": 2600,
      "ĠJos": 2601,
      "ĠDo": 2602,
      "Ġpages": 2603,
      "ĠStreet": 2604,
      "ights": 2605,
      "ĠOther": 2606,
      "Al": 2607,
      "Ġjoined": 2608,
      "ago": 2609,
      "Ġship": 2610,
      "Ġi": 2611,
      "ĠFrance": 2612,
      "ili": 2613,
      "atter": 2614,
      "Ġreally": 2615,
      "Ġrecent": 2616,
      "hib": 2617,
      "ological": 2618,
      "itor": 2619,
      "Ġkm": 2620,
      "box": 2621,
      "andid": 2622,
      "unt": 2623,
      "Ġmilitary": 2624,
      "Ġpolicy": 2625,
      "Ġweek": 2626,
      "ĠMart": 2627,
      "Ġvot": 2628,
      "Ġintro": 2629,
      "ĠSen": 2630,
      "Ġrail": 2631,
      "Ġaccept": 2632,
      "ĠGroup": 2633,
      "ged": 2634,
      "ĠTo": 2635,
      "ĠMusic": 2636,
      "Ġproduction": 2637,
      "ville": 2638,
      "Ġwhy": 2639,
      "ĠQue": 2640,
      "aur": 2641,
      "rian": 2642,
      "Ġinvolved": 2643,
      "outher": 2644,
      "rab": 2645,
      "itz": 2646,
      "ĠBlack": 2647,
      "unicip": 2648,
      "Ġgoing": 2649,
      "Ġdescribed": 2650,
      "ocus": 2651,
      "Ġcoverage": 2652,
      "Ġinternational": 2653,
      "Ġstory": 2654,
      "ĠSl": 2655,
      "ĠSing": 2656,
      "ĠCalifornia": 2657,
      "adian": 2658,
      "abel": 2659,
      "ky": 2660,
      "Ġcoll": 2661,
      "wood": 2662,
      "Ġhold": 2663,
      "ani": 2664,
      "Ġfar": 2665,
      "RO": 2666,
      "outhern": 2667,
      "ĠMilitary": 2668,
      "rup": 2669,
      "Ġpopular": 2670,
      "ĠList": 2671,
      "Ġdirector": 2672,
      "ĠLou": 2673,
      "ĠSam": 2674,
      "Ġmarried": 2675,
      "Ġhig": 2676,
      "eared": 2677,
      "berg": 2678,
      "mar": 2679,
      "__": 2680,
      ".)": 2681,
      "comm": 2682,
      "iction": 2683,
      "Ġupload": 2684,
      "Ġperforman": 2685,
      "ĠCanada": 2686,
      "oor": 2687,
      "'re": 2688,
      "Ġevents": 2689,
      "reek": 2690,
      "Ġsocial": 2691,
      "ude": 2692,
      "ĠClub": 2693,
      "ĠHol": 2694,
      "Ġproduc": 2695,
      "Ġtest": 2696,
      "Ġavail": 2697,
      "Ġ2002": 2698,
      "ership": 2699,
      "tt": 2700,
      "ĠRoyal": 2701,
      "Ġnov": 2702,
      "Ġproduced": 2703,
      "hold": 2704,
      "Ġfem": 2705,
      "Ġcomb": 2706,
      "clus": 2707,
      "ĠMag": 2708,
      "Ġpossible": 2709,
      "Ġhalf": 2710,
      "Ġz": 2711,
      "Ġclos": 2712,
      "ĠSim": 2713,
      "isl": 2714,
      "ĠMont": 2715,
      "Ġindependent": 2716,
      "ĠStud": 2717,
      "ram": 2718,
      "rain": 2719,
      "Ġfriend": 2720,
      "ĠDon": 2721,
      "Ġ2001": 2722,
      "aged": 2723,
      "text": 2724,
      "Ġvideo": 2725,
      "Ġteams": 2726,
      "ĠNe": 2727,
      "emi": 2728,
      "ny": 2729,
      "typed": 2730,
      "ination": 2731,
      "Ġ()": 2732,
      "Un": 2733,
      "CO": 2734,
      "typedelete": 2735,
      "ittee": 2736,
      "Ġtem": 2737,
      "itive": 2738,
      "rap": 2739,
      "Ġmust": 2740,
      "Ġcoach": 2741,
      "ĠAustralian": 2742,
      "Ġdone": 2743,
      "ĠPri": 2744,
      "Ġtemplate": 2745,
      "ston": 2746,
      "ĠPat": 2747,
      "arth": 2748,
      "Ġremoved": 2749,
      "fDed": 2750,
      "Ġlik": 2751,
      "Ġrul": 2752,
      "duct": 2753,
      "Ġsomeone": 2754,
      "Ġsepar": 2755,
      "Ġten": 2756,
      "ĠRoad": 2757,
      "âĢĿ": 2758,
      "Ġuns": 2759,
      "ĠOlymp": 2760,
      "Ġregion": 2761,
      "ĠHall": 2762,
      "eated": 2763,
      "Ġclear": 2764,
      "stitute": 2765,
      "Ġroad": 2766,
      "err": 2767,
      "aign": 2768,
      "Ġbar": 2769,
      "Ġhon": 2770,
      "usp": 2771,
      "ecess": 2772,
      "ĠAssociation": 2773,
      "Ġreturned": 2774,
      "Ġissues": 2775,
      "iddle": 2776,
      "Ġhapp": 2777,
      "Ġ50": 2778,
      "ider": 2779,
      "Ġworking": 2780,
      "Ġlost": 2781,
      "hi": 2782,
      "ĠAlex": 2783,
      "oid": 2784,
      "ship": 2785,
      "Ġvoc": 2786,
      "rd": 2787,
      "ume": 2788,
      "ray": 2789,
      "Ġqual": 2790,
      "Ġsigned": 2791,
      "ĠBest": 2792,
      "Ġentire": 2793,
      "hem": 2794,
      "ĠTV": 2795,
      "Ġstrong": 2796,
      "Ġartist": 2797,
      "uation": 2798,
      "anded": 2799,
      "Ġmonths": 2800,
      "ĠHen": 2801,
      "ĠMor": 2802,
      "},": 2803,
      "Ġdoc": 2804,
      "ĠUnion": 2805,
      "itect": 2806,
      "ened": 2807,
      "Ġevidence": 2808,
      "itch": 2809,
      "sy": 2810,
      "Ġchurch": 2811,
      "uf": 2812,
      "ĠÂ·": 2813,
      "ĠDis": 2814,
      "Ġindic": 2815,
      "ĠWhile": 2816,
      "tra": 2817,
      "Ġren": 2818,
      "ĠCast": 2819,
      "Ġcaus": 2820,
      "ĠBer": 2821,
      "Ġstruct": 2822,
      "Ġeducation": 2823,
      "Ġsqu": 2824,
      "cis": 2825,
      "Ġacross": 2826,
      "Ġant": 2827,
      "estival": 2828,
      "Ġdest": 2829,
      "odes": 2830,
      "61": 2831,
      "Ġavailable": 2832,
      "Ġrecogn": 2833,
      "ĠSome": 2834,
      "Ġ1990": 2835,
      "earch": 2836,
      "aughter": 2837,
      "Ġcertain": 2838,
      "Ġpast": 2839,
      "ida": 2840,
      "Ġver": 2841,
      "isted": 2842,
      "bor": 2843,
      "ĠThanks": 2844,
      "Ġpriv": 2845,
      "comp": 2846,
      "ique": 2847,
      "{}": 2848,
      "ĠAccording": 2849,
      "ĠEarly": 2850,
      "arliam": 2851,
      "ĠAcadem": 2852,
      "apt": 2853,
      "Ġcontinued": 2854,
      "ails": 2855,
      "Ġlow": 2856,
      "Ġrelease": 2857,
      "Ġservices": 2858,
      "ĠLeg": 2859,
      "oute": 2860,
      "enc": 2861,
      "Ġpur": 2862,
      "ĠMary": 2863,
      "Ġstudents": 2864,
      "ournament": 2865,
      "rect": 2866,
      "Ġtaken": 2867,
      "head": 2868,
      "Ġseen": 2869,
      "Ġbrother": 2870,
      "ĠRobert": 2871,
      "Ġareas": 2872,
      "Ġinflu": 2873,
      "rey": 2874,
      "Ġdou": 2875,
      "za": 2876,
      "arliament": 2877,
      "Ġcandid": 2878,
      "part": 2879,
      "Ġvia": 2880,
      "gether": 2881,
      "ills": 2882,
      "ĠMark": 2883,
      "Ġtogether": 2884,
      "oul": 2885,
      "Ġ::::": 2886,
      "Ġindust": 2887,
      "Ġsure": 2888,
      "ĠMad": 2889,
      "ĠAwards": 2890,
      "Ġfounded": 2891,
      "Ġelected": 2892,
      "men": 2893,
      "Ġlisted": 2894,
      "Ġeconom": 2895,
      "ĠSal": 2896,
      "ential": 2897,
      "Ġopened": 2898,
      "ĠChina": 2899,
      "Ġfocus": 2900,
      "Ġ----": 2901,
      "IBot": 2902,
      "Ġonce": 2903,
      "etwork": 2904,
      "irc": 2905,
      "Ġvict": 2906,
      "elling": 2907,
      "gi": 2908,
      "ĠâĢľ": 2909,
      "Ġlittle": 2910,
      "Ġrecorded": 2911,
      "Ġrelated": 2912,
      "yd": 2913,
      "Ġnomination": 2914,
      "ception": 2915,
      "Rep": 2916,
      "olf": 2917,
      "Ġclose": 2918,
      "ression": 2919,
      "uture": 2920,
      "ticles": 2921,
      "Ġleague": 2922,
      "ĠJust": 2923,
      "Ġmot": 2924,
      "ift": 2925,
      "Ġeight": 2926,
      "An": 2927,
      "ensive": 2928,
      "Ġoffer": 2929,
      "ĠRussian": 2930,
      "Ġrelations": 2931,
      "ĠGermany": 2932,
      "Ġcond": 2933,
      "Ġbody": 2934,
      "Ġprobably": 2935,
      "ĠLaw": 2936,
      "Ġregard": 2937,
      "Ġpolitician": 2938,
      "imate": 2939,
      "Ġitself": 2940,
      "ashington": 2941,
      "writ": 2942,
      "'d": 2943,
      "Ġour": 2944,
      "Ġhuman": 2945,
      "ators": 2946,
      "ĠTur": 2947,
      "ĠGrand": 2948,
      "Ġins": 2949,
      "AC": 2950,
      "ĠCourt": 2951,
      "craft": 2952,
      "Ġlight": 2953,
      "uz": 2954,
      "eph": 2955,
      "ĠAdd": 2956,
      "ĠTom": 2957,
      "iding": 2958,
      "ells": 2959,
      "Ġinstead": 2960,
      "ĠMet": 2961,
      "Ġblack": 2962,
      "fr": 2963,
      "Ġaccess": 2964,
      "Ġalthough": 2965,
      "ĠCompany": 2966,
      "iting": 2967,
      "oney": 2968,
      "AT": 2969,
      "ecutive": 2970,
      "ularly": 2971,
      "ounter": 2972,
      "rael": 2973,
      "ounds": 2974,
      "ein": 2975,
      "time": 2976,
      "Ġunderstand": 2977,
      "Ġpos": 2978,
      "employ": 2979,
      "Ġve": 2980,
      "ĠCare": 2981,
      "AS": 2982,
      "ĠCenter": 2983,
      "Ġsearch": 2984,
      "ĠMer": 2985,
      "oice": 2986,
      "ula": 2987,
      "ishing": 2988,
      "net": 2989,
      "ĠCap": 2990,
      "inese": 2991,
      "Ġfeatured": 2992,
      "Ġoffice": 2993,
      "ĠGreen": 2994,
      "Ġwhether": 2995,
      "Ġable": 2996,
      "Ġpersonal": 2997,
      "ĠVir": 2998,
      "ĠPlay": 2999,
      "ĠMiss": 3000,
      "Ġappeared": 3001,
      "Ġlaun": 3002,
      "flict": 3003,
      "ĠUK": 3004,
      "Wiki": 3005,
      "irth": 3006,
      "ĠTown": 3007,
      "Ġplayers": 3008,
      "ĠRail": 3009,
      "gin": 3010,
      "Ġaway": 3011,
      "Ġappointed": 3012,
      "arget": 3013,
      "arter": 3014,
      "Ġactually": 3015,
      "aries": 3016,
      "Ġpress": 3017,
      "ĠThomas": 3018,
      "ĠCentral": 3019,
      "ĠApp": 3020,
      "Ġcontrol": 3021,
      "site": 3022,
      "Ġdiscuss": 3023,
      "Ġhimself": 3024,
      "andal": 3025,
      "Ġbase": 3026,
      "ena": 3027,
      "ĠServ": 3028,
      "Ġwife": 3029,
      "bb": 3030,
      "Ġbecom": 3031,
      "Ġrace": 3032,
      "Ġnominated": 3033,
      "Ġcourse": 3034,
      "Ġ1999": 3035,
      "ros": 3036,
      "ransport": 3037,
      "&#": 3038,
      "ele": 3039,
      "ĠIsland": 3040,
      "Ġtrack": 3041,
      "ows": 3042,
      "Ġspace": 3043,
      "ĠJapanese": 3044,
      "Ġediting": 3045,
      "ĠWhat": 3046,
      "II": 3047,
      "ixed": 3048,
      "azine": 3049,
      "ĠArch": 3050,
      "ĠWomen": 3051,
      "ĠEurope": 3052,
      "Ġdiv": 3053,
      "cial": 3054,
      "ription": 3055,
      "Ġaver": 3056,
      "vey": 3057,
      "ams": 3058,
      "ands": 3059,
      "Ġtopic": 3060,
      "Ġfund": 3061,
      "Ġ!": 3062,
      "Ġtit": 3063,
      "ta": 3064,
      "une": 3065,
      "ini": 3066,
      "Ġ1980": 3067,
      "ĠYear": 3068,
      "Ġnews": 3069,
      "Ġcast": 3070,
      "ĠMac": 3071,
      "Ġcontract": 3072,
      "order": 3073,
      "Ġdraft": 3074,
      "anish": 3075,
      "Ġlive": 3076,
      "edic": 3077,
      "ĠSur": 3078,
      "ĠScott": 3079,
      "Ġmar": 3080,
      "Ġappears": 3081,
      "ĠOp": 3082,
      "ĠCanadian": 3083,
      "aving": 3084,
      "ĠCharles": 3085,
      "Ġtradition": 3086,
      "Ġhard": 3087,
      "oz": 3088,
      "ceed": 3089,
      "ux": 3090,
      "Ġdeg": 3091,
      "roy": 3092,
      "duction": 3093,
      "Ġagre": 3094,
      "clop": 3095,
      "ength": 3096,
      "Ġmodern": 3097,
      "ĠIP": 3098,
      "cks": 3099,
      "Ġphys": 3100,
      "Ġmother": 3101,
      "Ġmerg": 3102,
      "ias": 3103,
      "Ġcurrently": 3104,
      "Re": 3105,
      "Ġgrow": 3106,
      "alls": 3107,
      "Ġprovide": 3108,
      "ĠMichael": 3109,
      "Ġshows": 3110,
      "ĠGold": 3111,
      "ĠSum": 3112,
      "span": 3113,
      "ĠSep": 3114,
      "imately": 3115,
      "Ġstudy": 3116,
      "ca": 3117,
      "Ġgroups": 3118,
      "ĠMuseum": 3119,
      "nder": 3120,
      "asket": 3121,
      "ona": 3122,
      "Ġthought": 3123,
      "icle": 3124,
      "ĠIr": 3125,
      "Ġmultiple": 3126,
      "udd": 3127,
      "ĠPre": 3128,
      "inter": 3129,
      "otection": 3130,
      "Ġmid": 3131,
      "ocrat": 3132,
      "Ġthings": 3133,
      "ĠSun": 3134,
      "ĠBay": 3135,
      "Ġtype": 3136,
      "Ġht": 3137,
      "ĠChristian": 3138,
      "arily": 3139,
      "ĠWashington": 3140,
      "enwiki": 3141,
      "eria": 3142,
      "Ġfig": 3143,
      "atives": 3144,
      "Ġresults": 3145,
      "och": 3146,
      "Ġproduct": 3147,
      "ĠBi": 3148,
      "Ġprovided": 3149,
      "Ġcampaign": 3150,
      "ethod": 3151,
      "ressed": 3152,
      "Ġ***": 3153,
      "Ġbooks": 3154,
      "ĠMex": 3155,
      "kn": 3156,
      "Ġspeed": 3157,
      "Ġtransl": 3158,
      "ki": 3159,
      "chie": 3160,
      "arian": 3161,
      "Ġepisode": 3162,
      "ender": 3163,
      "ites": 3164,
      "ĠAngel": 3165,
      "ĠInter": 3166,
      "Ġformed": 3167,
      "Ġmeans": 3168,
      "Ġill": 3169,
      "ederal": 3170,
      "Ġadm": 3171,
      "ibrary": 3172,
      "Ġliter": 3173,
      "ĠFr": 3174,
      "Ġhttp": 3175,
      "Ã¤": 3176,
      "Ġjud": 3177,
      "ĠJew": 3178,
      "ĠCath": 3179,
      "lt": 3180,
      "ecially": 3181,
      "culated": 3182,
      "Ġdeveloped": 3183,
      "%)": 3184,
      "Ġtour": 3185,
      "hing": 3186,
      "ĠPet": 3187,
      "istics": 3188,
      "Ġarr": 3189,
      "la": 3190,
      "00000000": 3191,
      "Ġ#:": 3192,
      "ĠKh": 3193,
      "iers": 3194,
      "FA": 3195,
      "Ġenc": 3196,
      "ĠEr": 3197,
      "Sh": 3198,
      "Ġ1998": 3199,
      "Ġgradu": 3200,
      "ĠFootball": 3201,
      "Wh": 3202,
      "Ġincludes": 3203,
      "atural": 3204,
      "yr": 3205,
      "ĠItalian": 3206,
      "ĠMinister": 3207,
      "ĠGreat": 3208,
      "Ġcome": 3209,
      "Ġemploy": 3210,
      "Ġestablish": 3211,
      ");": 3212,
      "ĠDepartment": 3213,
      "Ġrelig": 3214,
      "ĠSince": 3215,
      "ĠCons": 3216,
      "ĠVict": 3217,
      "Ġconv": 3218,
      "ĠPeter": 3219,
      "Ġstated": 3220,
      "oper": 3221,
      "Ġanal": 3222,
      "viron": 3223,
      "ura": 3224,
      "Ġresol": 3225,
      "ĠBen": 3226,
      "ĠDel": 3227,
      "Ġpe": 3228,
      "Ġdirected": 3229,
      "no": 3230,
      "ĠInstitute": 3231,
      "ER": 3232,
      "mb": 3233,
      "Ġchanges": 3234,
      "ĠLinks": 3235,
      "ĠWil": 3236,
      "Ġspecific": 3237,
      "Ġcross": 3238,
      "porary": 3239,
      "Ġassoci": 3240,
      "aker": 3241,
      "emor": 3242,
      "Ġboard": 3243,
      "ĠSociety": 3244,
      "Ġword": 3245,
      "Ġearl": 3246,
      "Amer": 3247,
      "Ġisn": 3248,
      ")(": 3249,
      "bit": 3250,
      "ute": 3251,
      "Ġplaying": 3252,
      "Ġstop": 3253,
      "ola": 3254,
      "Ġnovel": 3255,
      "da": 3256,
      "BA": 3257,
      "atory": 3258,
      "Ġmakes": 3259,
      "Ġprimary": 3260,
      "aught": 3261,
      "Ġgive": 3262,
      "ĠChinese": 3263,
      "ĠDelete": 3264,
      "ĠWestern": 3265,
      "ota": 3266,
      "Ġstates": 3267,
      "Ġrespect": 3268,
      "iqu": 3269,
      "sel": 3270,
      "Ġder": 3271,
      "atal": 3272,
      "ĠHam": 3273,
      "Ġdeal": 3274,
      "Ġfight": 3275,
      "Ġassist": 3276,
      "'ll": 3277,
      "Ġwid": 3278,
      "Ġ1970": 3279,
      "prev": 3280,
      "Ġdate": 3281,
      "Ġjournal": 3282,
      "Ġchanged": 3283,
      "Ġesp": 3284,
      "background": 3285,
      "gy": 3286,
      "ospital": 3287,
      "ĠCong": 3288,
      "Ġdaughter": 3289,
      "Ġfinished": 3290,
      "Ġfire": 3291,
      "ĠMel": 3292,
      "ĠMus": 3293,
      "ests": 3294,
      "Ġpot": 3295,
      "Ġdi": 3296,
      "ĠKingdom": 3297,
      "ĠSecond": 3298,
      "arned": 3299,
      "Ġanything": 3300,
      "NG": 3301,
      "Ġoverlap": 3302,
      "eck": 3303,
      "Ġord": 3304,
      "ĠBill": 3305,
      "Ġcompleted": 3306,
      "ource": 3307,
      "ĠRob": 3308,
      "Ġnames": 3309,
      "Ġcateg": 3310,
      "ĠWhite": 3311,
      "Ġcritic": 3312,
      "ĠRepublic": 3313,
      "erous": 3314,
      "ĠSport": 3315,
      "istry": 3316,
      "Ġfront": 3317,
      "Ġrank": 3318,
      "ĠEduc": 3319,
      "ĠAcademy": 3320,
      "ĠLouis": 3321,
      "ita": 3322,
      "Ġkey": 3323,
      "File": 3324,
      "ĠCamp": 3325,
      "Ġpromoted": 3326,
      "FC": 3327,
      "ella": 3328,
      "ranch": 3329,
      "Ġaction": 3330,
      "reland": 3331,
      "uments": 3332,
      "ano": 3333,
      "aves": 3334,
      "Ġtre": 3335,
      "ID": 3336,
      "idel": 3337,
      "Ġever": 3338,
      "Project": 3339,
      "ĠAlso": 3340,
      "Ġ40": 3341,
      "Ġconsider": 3342,
      "Ġguitar": 3343,
      "Ġrights": 3344,
      "Ġliving": 3345,
      "Ġgave": 3346,
      "Ġinj": 3347,
      "ado": 3348,
      "ergy": 3349,
      "Ġ1996": 3350,
      "istic": 3351,
      "ĠIsrael": 3352,
      "Ġsuccessful": 3353,
      "Ġfollowed": 3354,
      "Ġhous": 3355,
      "ĠGeorg": 3356,
      "ĠProv": 3357,
      "Ġanim": 3358,
      "enced": 3359,
      "ĠAfrican": 3360,
      "Ġconflict": 3361,
      "chol": 3362,
      "Ġcreate": 3363,
      "ci": 3364,
      "',": 3365,
      "ĠSuper": 3366,
      "ĠAfrica": 3367,
      "Ġreached": 3368,
      "Ġcountries": 3369,
      "unk": 3370,
      "ĠEv": 3371,
      "Ġdev": 3372,
      "ero": 3373,
      "Ġcivil": 3374,
      "Ġlikely": 3375,
      "ĠMr": 3376,
      "add": 3377,
      "diffprev": 3378,
      "ĠDay": 3379,
      "ĠSmith": 3380,
      "asketball": 3381,
      "ye": 3382,
      "ria": 3383,
      "Ġeast": 3384,
      "ĠFrank": 3385,
      "ply": 3386,
      "ĠCfDed": 3387,
      "Ġalmost": 3388,
      "Ġperformed": 3389,
      "Ġreferences": 3390,
      "ĠTer": 3391,
      "Ġopin": 3392,
      "Ġ1997": 3393,
      "Ġacqu": 3394,
      "west": 3395,
      "ĠLat": 3396,
      "medi": 3397,
      "ĠOl": 3398,
      "Ġself": 3399,
      "astern": 3400,
      "ault": 3401,
      "hu": 3402,
      "Ġwriter": 3403,
      "istan": 3404,
      "ĠDraft": 3405,
      "Ġgot": 3406,
      "Ġwriting": 3407,
      "Ġlack": 3408,
      "Ġnotice": 3409,
      "ĠTex": 3410,
      "inals": 3411,
      "asing": 3412,
      ",\"": 3413,
      "Ġsongs": 3414,
      "urd": 3415,
      "history": 3416,
      "Ġoutside": 3417,
      "Ġrespons": 3418,
      "Ġstage": 3419,
      "Ġpers": 3420,
      "ĠMa": 3421,
      "Ġneeds": 3422,
      "Ġfeel": 3423,
      "Ġplan": 3424,
      "Ġdisput": 3425,
      "Ġperformance": 3426,
      "Ġ)": 3427,
      "atre": 3428,
      "Ġkilled": 3429,
      "Ġ{}": 3430,
      "ĠUs": 3431,
      "Ġoriginally": 3432,
      "ilities": 3433,
      "ĠSant": 3434,
      "Ġpreviously": 3435,
      "Ġ+": 3436,
      "ĠPan": 3437,
      "123": 3438,
      "Ġaverage": 3439,
      ":#": 3440,
      "Ġwest": 3441,
      "ĠRichard": 3442,
      "Ġrange": 3443,
      "ript": 3444,
      "ĠSee": 3445,
      "ĠBro": 3446,
      "ĠPerson": 3447,
      "ns": 3448,
      "::::": 3449,
      "122": 3450,
      "ternal": 3451,
      "ĠTor": 3452,
      "arts": 3453,
      "ishop": 3454,
      "Ġnothing": 3455,
      "aval": 3456,
      "Ġrock": 3457,
      "Ġcheck": 3458,
      "Ġetc": 3459,
      "ees": 3460,
      "ĠKore": 3461,
      "ĠCOIBot": 3462,
      "Ġpurp": 3463,
      "ĠCur": 3464,
      "band": 3465,
      "Ġdocument": 3466,
      "acher": 3467,
      "ges": 3468,
      "Ġdam": 3469,
      "arning": 3470,
      "ĠDes": 3471,
      "ĠVol": 3472,
      "ĠDef": 3473,
      "Ġfeatures": 3474,
      "Ġmarket": 3475,
      "hood": 3476,
      "Ġhealth": 3477,
      "ĠGra": 3478,
      "Ġconstruction": 3479,
      "Ġ...": 3480,
      "Ġusually": 3481,
      "Ġlot": 3482,
      "Ġtournament": 3483,
      "Ġbelieve": 3484,
      "md": 3485,
      "Ġmiss": 3486,
      "Ġtag": 3487,
      "Ġmass": 3488,
      "nel": 3489,
      "oke": 3490,
      "Äĩ": 3491,
      "airs": 3492,
      "ĠSpanish": 3493,
      "Äģ": 3494,
      "cing": 3495,
      "uit": 3496,
      "Ġfuture": 3497,
      "ĠPublic": 3498,
      "tr": 3499,
      "lant": 3500,
      "urity": 3501,
      "osing": 3502,
      "obal": 3503,
      "vironment": 3504,
      "cgi": 3505,
      "anned": 3506,
      "Ġmodel": 3507,
      "cyclop": 3508,
      "bour": 3509,
      "Ġfav": 3510,
      "Ġschools": 3511,
      "Ġespecially": 3512,
      "Ġcost": 3513,
      "Ġsusp": 3514,
      "Ġrule": 3515,
      "Ġplaced": 3516,
      "Ġcourt": 3517,
      "Ġparticular": 3518,
      "ĠBu": 3519,
      "Ġseven": 3520,
      "Ġradio": 3521,
      "ĠParis": 3522,
      "Ġcollection": 3523,
      "onse": 3524,
      "ĠFrancis": 3525,
      "haps": 3526,
      "inner": 3527,
      "Ġleading": 3528,
      "Ġminor": 3529,
      "Ġparent": 3530,
      "Ġ1995": 3531,
      "ĠFin": 3532,
      "oring": 3533,
      "ĠHenry": 3534,
      "aching": 3535,
      "117": 3536,
      "Ġmus": 3537,
      "ĠPe": 3538,
      "gu": 3539,
      "Ġarchitect": 3540,
      "uter": 3541,
      "idents": 3542,
      "Ġforces": 3543,
      "ires": 3544,
      "Ġdesigned": 3545,
      "ĠLake": 3546,
      "round": 3547,
      "lor": 3548,
      "Ġupon": 3549,
      "etimes": 3550,
      "Ġsays": 3551,
      "Comment": 3552,
      "Ġreplaced": 3553,
      "ealand": 3554,
      "annel": 3555,
      "ĠCareer": 3556,
      "edy": 3557,
      "embly": 3558,
      "Ġmunicip": 3559,
      "ĠIts": 3560,
      "\"|": 3561,
      "abs": 3562,
      "Ġ1994": 3563,
      "EC": 3564,
      "Ġsil": 3565,
      "cell": 3566,
      "wik": 3567,
      "TV": 3568,
      "wa": 3569,
      "Ġfilms": 3570,
      "class": 3571,
      "Ġyet": 3572,
      "ios": 3573,
      "irm": 3574,
      "known": 3575,
      "ĠMost": 3576,
      "Ġcalculated": 3577,
      "Ġopt": 3578,
      "ĠPortal": 3579,
      "ĠMil": 3580,
      "Ġalways": 3581,
      "Ġobject": 3582,
      "ĠZealand": 3583,
      "lam": 3584,
      "Ġsen": 3585,
      "Ġhom": 3586,
      "US": 3587,
      "Ġwhite": 3588,
      "Ġidea": 3589,
      "FL": 3590,
      "illa": 3591,
      "ection": 3592,
      "Ġlargest": 3593,
      "Ġ1992": 3594,
      "It": 3595,
      "agon": 3596,
      "Ġawarded": 3597,
      "ĠCr": 3598,
      "ĠPRO": 3599,
      "ĠCarol": 3600,
      "Ġcharacters": 3601,
      "lim": 3602,
      "ĠSqu": 3603,
      "type": 3604,
      "ĠHon": 3605,
      "Ġcompetition": 3606,
      "see": 3607,
      "Ġsubsequent": 3608,
      "ids": 3609,
      "OR": 3610,
      "Ġ1960": 3611,
      "Ġsinger": 3612,
      "agen": 3613,
      "Ġtraining": 3614,
      "gen": 3615,
      "Ġstandard": 3616,
      "This": 3617,
      "ĠRock": 3618,
      "Ad": 3619,
      "Ġcases": 3620,
      "Ġinvestig": 3621,
      "oms": 3622,
      "oles": 3623,
      "oma": 3624,
      "ĠFore": 3625,
      "used": 3626,
      "well": 3627,
      "Ġactive": 3628,
      "ĠCatholic": 3629,
      ".--": 3630,
      "Ġleader": 3631,
      "olk": 3632,
      "ĠTexas": 3633,
      "ĠVictor": 3634,
      "ĠVirgin": 3635,
      "uke": 3636,
      "ady": 3637,
      "ems": 3638,
      "Ġachie": 3639,
      "Ġmeas": 3640,
      "Ġagree": 3641,
      "Ġsaw": 3642,
      "ĠEducation": 3643,
      "key": 3644,
      "Ġkind": 3645,
      "Ġnecess": 3646,
      "rated": 3647,
      "ĠHill": 3648,
      "ĠBrown": 3649,
      "Ġacadem": 3650,
      "ĠSk": 3651,
      "ocratic": 3652,
      "Ġbig": 3653,
      "ĠKn": 3654,
      "Ġconduct": 3655,
      "ĠSaint": 3656,
      "mercial": 3657,
      "Ġ(\"": 3658,
      "Ġsound": 3659,
      "news": 3660,
      "John": 3661,
      "ĠFound": 3662,
      "ĠPeople": 3663,
      "ÃĤ": 3664,
      "Ġbit": 3665,
      "Ġprem": 3666,
      "Ġdom": 3667,
      "iano": 3668,
      "essed": 3669,
      "Ġcollege": 3670,
      "ĠRev": 3671,
      "Ġtransfer": 3672,
      "Ġautom": 3673,
      "anda": 3674,
      "Ġthroughout": 3675,
      "olit": 3676,
      "Ġvote": 3677,
      "thlet": 3678,
      "Ġabs": 3679,
      "ĠAlthough": 3680,
      "km": 3681,
      "Ġorganization": 3682,
      "ordin": 3683,
      "Ġcapt": 3684,
      "Ġaud": 3685,
      "Ã¨": 3686,
      "oviet": 3687,
      "ĠCarl": 3688,
      "Ġgoal": 3689,
      "Ġplease": 3690,
      "Ġprivate": 3691,
      "Ġfourth": 3692,
      "Ġ1993": 3693,
      "unity": 3694,
      "ĠJo": 3695,
      "Ġbo": 3696,
      "ĠLife": 3697,
      "Ġsoft": 3698,
      "Ġneg": 3699,
      "ĠGod": 3700,
      "ĠRecords": 3701,
      "icult": 3702,
      "ples": 3703,
      "Ġremained": 3704,
      "adium": 3705,
      "Ġsuff": 3706,
      "American": 3707,
      "Ġnom": 3708,
      "ĠStar": 3709,
      "Ġfunction": 3710,
      "inent": 3711,
      "ĠIreland": 3712,
      "isher": 3713,
      "ĠTwo": 3714,
      "Ġoccur": 3715,
      "Report": 3716,
      "Ġpolice": 3717,
      "gress": 3718,
      "face": 3719,
      "Ġgenerally": 3720,
      "AN": 3721,
      "ĠGall": 3722,
      "Ġnewsp": 3723,
      "obox": 3724,
      "google": 3725,
      "icago": 3726,
      "ĠSwed": 3727,
      "Ġwhose": 3728,
      "roll": 3729,
      "Ġsimply": 3730,
      "124": 3731,
      "mdash": 3732,
      "Ġsat": 3733,
      "orse": 3734,
      "ja": 3735,
      "like": 3736,
      "Ġconn": 3737,
      "ĠTim": 3738,
      "ĠOver": 3739,
      "Ġdistribut": 3740,
      "Ġrat": 3741,
      "Ġlength": 3742,
      "Ġeventually": 3743,
      "ibility": 3744,
      "Ġbad": 3745,
      "Bl": 3746,
      "Ġclaims": 3747,
      "ĠOff": 3748,
      "Ġrequire": 3749,
      "Ġthing": 3750,
      "Ġ1991": 3751,
      "erve": 3752,
      "ette": 3753,
      "letion": 3754,
      "iences": 3755,
      "Ġpict": 3756,
      "ĠCommittee": 3757,
      "Ġsaying": 3758,
      "Ġapplic": 3759,
      "ends": 3760,
      "Ġdiscover": 3761,
      "Ġterms": 3762,
      "Ġcred": 3763,
      "Ġreference": 3764,
      "Ġloss": 3765,
      "Ġlo": 3766,
      "ĠBur": 3767,
      "Ãĥ": 3768,
      "Ġdraw": 3769,
      "\")": 3770,
      "Ġcorrect": 3771,
      "Ġtreat": 3772,
      "Ġimages": 3773,
      "Ġfair": 3774,
      "Ġwebsite": 3775,
      "ĠMod": 3776,
      "Ġvocals": 3777,
      "ting": 3778,
      "Ġexam": 3779,
      "ĠTechn": 3780,
      "hest": 3781,
      "Ġactor": 3782,
      "ĠFestival": 3783,
      "ĠRos": 3784,
      "Ġmis": 3785,
      "Ġrequired": 3786,
      "ali": 3787,
      "Ġreb": 3788,
      "Ġmount": 3789,
      "ora": 3790,
      "AL": 3791,
      "ĠBo": 3792,
      "anies": 3793,
      "Ġsubmitted": 3794,
      "bs": 3795,
      "ĠDirect": 3796,
      "Ġsurv": 3797,
      "yan": 3798,
      "Ġdecided": 3799,
      "Ġwind": 3800,
      "Ġdecision": 3801,
      "Ġlonger": 3802,
      "Ġmethod": 3803,
      "with": 3804,
      "Ġsock": 3805,
      "ĠChampionships": 3806,
      "Ġstatus": 3807,
      "lying": 3808,
      "retary": 3809,
      "ĠLos": 3810,
      "Ġadditional": 3811,
      "Ġdegree": 3812,
      "lements": 3813,
      "stant": 3814,
      "asc": 3815,
      "Ġden": 3816,
      "Ġcapital": 3817,
      "FF": 3818,
      "Ġaccording": 3819,
      "Ġground": 3820,
      "ĠSat": 3821,
      "ĠOut": 3822,
      "Åį": 3823,
      "IC": 3824,
      "Ġsex": 3825,
      "ĠSpace": 3826,
      "uty": 3827,
      "Ġnote": 3828,
      "ĠSil": 3829,
      "Ġcompl": 3830,
      "ĨĴ": 3831,
      "Ġallowed": 3832,
      "Ġcentral": 3833,
      "Ġinstitut": 3834,
      "ko": 3835,
      "va": 3836,
      "Ġben": 3837,
      "Ġpay": 3838,
      "arring": 3839,
      "oral": 3840,
      "Ġadministr": 3841,
      "Ġtaking": 3842,
      "Ġbroadcast": 3843,
      "ources": 3844,
      "Ġcopyright": 3845,
      "Ġwords": 3846,
      "Ġproblems": 3847,
      "ĠEmp": 3848,
      "igan": 3849,
      "Ġscient": 3850,
      "isions": 3851,
      "cel": 3852,
      "Ġcirc": 3853,
      "Ġbehav": 3854,
      "mary": 3855,
      "Ġdidn": 3856,
      "ĠGood": 3857,
      "ĠCommission": 3858,
      "AM": 3859,
      "Ġdefin": 3860,
      "Ġprinc": 3861,
      "Ġbox": 3862,
      "ledge": 3863,
      "Ġchampionship": 3864,
      "zil": 3865,
      "ects": 3866,
      "ockey": 3867,
      "oud": 3868,
      "ĠMo": 3869,
      "120": 3870,
      "Ġsize": 3871,
      "Ġscored": 3872,
      "based": 3873,
      "Ġgold": 3874,
      "etry": 3875,
      "Ġaddress": 3876,
      "utch": 3877,
      "Ġlic": 3878,
      "Ġaircraft": 3879,
      "ĠÐ": 3880,
      "rovers": 3881,
      "uan": 3882,
      "ether": 3883,
      "Ġlabel": 3884,
      "Ġresponse": 3885,
      "Articles": 3886,
      "sych": 3887,
      "Ã³n": 3888,
      "116": 3889,
      "emporary": 3890,
      "dis": 3891,
      "Ġbehind": 3892,
      "Ġparts": 3893,
      "ĠHistor": 3894,
      "Ġfall": 3895,
      "Ġneeded": 3896,
      "Ġprior": 3897,
      "Ġmess": 3898,
      "ĠAre": 3899,
      "li": 3900,
      "Ġschol": 3901,
      "ĠBattle": 3902,
      "Ġtrue": 3903,
      "stein": 3904,
      "ĠLem": 3905,
      "ĠFollow": 3906,
      "ĠTour": 3907,
      "Ġnoted": 3908,
      "enth": 3909,
      "Ġfemale": 3910,
      "ĠForce": 3911,
      "Support": 3912,
      "mark": 3913,
      "ĠSand": 3914,
      "Ġcut": 3915,
      "2007": 3916,
      "Ġbirth": 3917,
      "ira": 3918,
      "Ġcolor": 3919,
      "bin": 3920,
      "ĠClass": 3921,
      "Ġrecords": 3922,
      "ED": 3923,
      "mit": 3924,
      "Ġreve": 3925,
      "eff": 3926,
      "ĠArts": 3927,
      "Ġpaint": 3928,
      "Ġbrought": 3929,
      "Class": 3930,
      "aining": 3931,
      "Ġcy": 3932,
      "Ġtax": 3933,
      "utes": 3934,
      "ĠAnn": 3935,
      "Ġlegal": 3936,
      "Ġforce": 3937,
      "Ġcategories": 3938,
      "istent": 3939,
      "Ġge": 3940,
      "ĠJim": 3941,
      "amer": 3942,
      "ĠSir": 3943,
      "Ġvalue": 3944,
      "ĠMur": 3945,
      "ĠHel": 3946,
      "Ġtowards": 3947,
      "ĠUnder": 3948,
      "Ġtravel": 3949,
      "Ġmaintain": 3950,
      "Ġ1989": 3951,
      "reme": 3952,
      "igital": 3953,
      "Ġplant": 3954,
      ".*": 3955,
      "izing": 3956,
      "adi": 3957,
      "vant": 3958,
      "Ġcenter": 3959,
      "iana": 3960,
      "ato": 3961,
      "rial": 3962,
      "amm": 3963,
      "ingu": 3964,
      "Ġnight": 3965,
      "chan": 3966,
      "ror": 3967,
      "ĠGovernment": 3968,
      "eful": 3969,
      "bot": 3970,
      "ĠUk": 3971,
      "()": 3972,
      "Ġx": 3973,
      "ĠGames": 3974,
      "Ġhousehold": 3975,
      "118": 3976,
      "ĠUp": 3977,
      "asion": 3978,
      "ĠScience": 3979,
      "ĠChicago": 3980,
      "Ġuses": 3981,
      "Ġparticularly": 3982,
      "Ġquite": 3983,
      "aud": 3984,
      "Ġblocked": 3985,
      "Ġproducer": 3986,
      "Sc": 3987,
      "ĠAut": 3988,
      "oys": 3989,
      "pped": 3990,
      "aria": 3991,
      "ĠOper": 3992,
      "Ġearlier": 3993,
      "Ġpred": 3994,
      "Ġdifficult": 3995,
      "ĠPenn": 3996,
      "Ġintroduced": 3997,
      "ĠJoseph": 3998,
      "Ġexhib": 3999,
      "bre": 4000,
      "ĠTrans": 4001,
      "ocks": 4002,
      "ĠRel": 4003,
      "ĠRussia": 4004,
      "Ġstre": 4005,
      "Ġcannot": 4006,
      "ĠProfess": 4007,
      "Ġ#\"": 4008,
      "Ġstudio": 4009,
      "Ġpain": 4010,
      "ĠFlor": 4011,
      "106": 4012,
      "mm": 4013,
      "ĠArab": 4014,
      "ises": 4015,
      "Ġregular": 4016,
      "Ġfif": 4017,
      "Ġoccup": 4018,
      "Ġvandal": 4019,
      "irt": 4020,
      "Ġrailway": 4021,
      "Ġbreak": 4022,
      "Ġwhole": 4023,
      "aith": 4024,
      "Ġdivision": 4025,
      "Ġwinning": 4026,
      "iled": 4027,
      "ih": 4028,
      "verted": 4029,
      "ĠOld": 4030,
      "light": 4031,
      "Ġmovement": 4032,
      "Ġsoon": 4033,
      "umn": 4034,
      "Ġrepresented": 4035,
      "oses": 4036,
      "à¤": 4037,
      "ipl": 4038,
      "PA": 4039,
      "ĠMat": 4040,
      "house": 4041,
      "Ġmatter": 4042,
      "Ġculture": 4043,
      "azz": 4044,
      "ĠDen": 4045,
      "date": 4046,
      "abit": 4047,
      "New": 4048,
      "Ġencyclop": 4049,
      "Ġaltern": 4050,
      "Ġquick": 4051,
      "Ġcoup": 4052,
      "ken": 4053,
      "fect": 4054,
      "Ġelse": 4055,
      "Ġrelationship": 4056,
      "ĠScot": 4057,
      "ocal": 4058,
      "Ġgun": 4059,
      "Ġmission": 4060,
      "Ġment": 4061,
      "Ġ****": 4062,
      "aring": 4063,
      "ao": 4064,
      "Ġ1988": 4065,
      "ĠStr": 4066,
      "ĠBack": 4067,
      "Ġseparate": 4068,
      "Ġlocation": 4069,
      "Ġdefeated": 4070,
      "amily": 4071,
      "ĠBig": 4072,
      "Ġbro": 4073,
      "ĠOh": 4074,
      "Ġtrying": 4075,
      "ĠMatt": 4076,
      "ube": 4077,
      "Ġcontains": 4078,
      "acing": 4079,
      "\\.": 4080,
      "Ġbuildings": 4081,
      "2008": 4082,
      "ĠLiber": 4083,
      "ĠMartin": 4084,
      "ĠSoviet": 4085,
      "119": 4086,
      "onn": 4087,
      "IS": 4088,
      "ĠTeam": 4089,
      "Ġattended": 4090,
      "Ġplat": 4091,
      "ĠOrder": 4092,
      "ĠFollowing": 4093,
      "Ġhours": 4094,
      "Ġ}}": 4095,
      "ĠInc": 4096,
      "ĠMass": 4097,
      "tools": 4098,
      "Ġanyone": 4099,
      "Ġthus": 4100,
      "ufact": 4101,
      "Ġlower": 4102,
      "overs": 4103,
      "105": 4104,
      "ĠItaly": 4105,
      "ĠMore": 4106,
      "rief": 4107,
      "ĠMen": 4108,
      "Ġess": 4109,
      "Ġvari": 4110,
      "iy": 4111,
      "ampion": 4112,
      "mond": 4113,
      "ĠJack": 4114,
      "Ġsometimes": 4115,
      "\"]": 4116,
      "Ġ*\"": 4117,
      "ĠSeries": 4118,
      "Ġopinion": 4119,
      "Ġnetwork": 4120,
      "iro": 4121,
      "Ġdoing": 4122,
      "ĠLove": 4123,
      "ĠPost": 4124,
      "Ġguidel": 4125,
      "_(": 4126,
      "ĠWood": 4127,
      "Ġgrand": 4128,
      "bers": 4129,
      "ĠPRODed": 4130,
      "top": 4131,
      "icit": 4132,
      "Ġsemi": 4133,
      "Ġnorm": 4134,
      "down": 4135,
      "ĠHaw": 4136,
      "ĠLee": 4137,
      "style": 4138,
      "aka": 4139,
      "Ġstructure": 4140,
      "Ġgoals": 4141,
      "Ġmeaning": 4142,
      "Ġanc": 4143,
      "shire": 4144,
      "owers": 4145,
      "ĠNorthern": 4146,
      "ilies": 4147,
      "Ġparties": 4148,
      "alled": 4149,
      "Ġobs": 4150,
      "Ġneigh": 4151,
      "ĠParliament": 4152,
      "math": 4153,
      "stra": 4154,
      "ĠMill": 4155,
      "Ġaccus": 4156,
      "clusion": 4157,
      "Ã§": 4158,
      "mission": 4159,
      "Ġansw": 4160,
      "Ġcensus": 4161,
      "aming": 4162,
      "Ġaccounts": 4163,
      "ĠSar": 4164,
      "ĠWales": 4165,
      "Ġcollabor": 4166,
      "Ġended": 4167,
      "Ġ34": 4168,
      "iant": 4169,
      "ĠSup": 4170,
      "ĠTw": 4171,
      "Ġbackground": 4172,
      "eeks": 4173,
      "etting": 4174,
      "Ġ{{": 4175,
      "icro": 4176,
      "ublican": 4177,
      "Ġ1987": 4178,
      "ĠNavy": 4179,
      "Le": 4180,
      "ati": 4181,
      "wm": 4182,
      "wan": 4183,
      "Ġcomplex": 4184,
      "ĠBet": 4185,
      "Ġpractice": 4186,
      "ĠFre": 4187,
      "ĠSte": 4188,
      "books": 4189,
      "selves": 4190,
      "Ġ33": 4191,
      "Ġbeginning": 4192,
      "den": 4193,
      "ĠBrazil": 4194,
      "Ġens": 4195,
      "Ġinsp": 4196,
      "ĠMain": 4197,
      "2010": 4198,
      "tical": 4199,
      "icles": 4200,
      "Ġking": 4201,
      "Ġmajority": 4202,
      "Ġhit": 4203,
      "Ġindustry": 4204,
      "Ġedition": 4205,
      "OV": 4206,
      "ulture": 4207,
      "Ġdestroy": 4208,
      "ips": 4209,
      "Ġamount": 4210,
      "Ġterrit": 4211,
      "Ġapprox": 4212,
      ";âĢĵ": 4213,
      "awa": 4214,
      "ugby": 4215,
      "Ġsystems": 4216,
      "Ġwrong": 4217,
      "Ġconstruct": 4218,
      "ĠPac": 4219,
      "lo": 4220,
      "ĠLand": 4221,
      "Ġ1950": 4222,
      "Ġap": 4223,
      "ĠFred": 4224,
      "ima": 4225,
      "ĠNews": 4226,
      "more": 4227,
      "Ġthemselves": 4228,
      "Ph": 4229,
      "Ġwhom": 4230,
      "ĠWiki": 4231,
      "Ġdemon": 4232,
      "Ġcommercial": 4233,
      "Ġ35": 4234,
      "aya": 4235,
      "ĠAngeles": 4236,
      "Ġmatches": 4237,
      "ĠTimes": 4238,
      "organ": 4239,
      "Ġuploaded": 4240,
      "asp": 4241,
      "ĠFort": 4242,
      "Ġimmedi": 4243,
      "Ġcomplete": 4244,
      "ĠSol": 4245,
      "ĠService": 4246,
      "Ġtrust": 4247,
      "Ġmagazine": 4248,
      "Ġscience": 4249,
      "Ġimm": 4250,
      "Ġsports": 4251,
      "inct": 4252,
      "Ġconcept": 4253,
      "Ġ1986": 4254,
      "orpor": 4255,
      "Se": 4256,
      "Ġsort": 4257,
      "Ed": 4258,
      "IT": 4259,
      "Ġesc": 4260,
      "elt": 4261,
      "anning": 4262,
      "imin": 4263,
      "Ġfootballer": 4264,
      "Ġtro": 4265,
      "ario": 4266,
      "LP": 4267,
      "ancial": 4268,
      "ults": 4269,
      "vement": 4270,
      "sub": 4271,
      "Ġ37": 4272,
      "Ġcandidate": 4273,
      "Ġ53": 4274,
      "wer": 4275,
      "Ġstar": 4276,
      "Ġdesp": 4277,
      "ĠIrish": 4278,
      "Ġcompos": 4279,
      "ĠRh": 4280,
      "Ġsuper": 4281,
      "ua": 4282,
      "ibly": 4283,
      "aches": 4284,
      "erry": 4285,
      "ski": 4286,
      "No": 4287,
      "Ġcommission": 4288,
      "can": 4289,
      "ouch": 4290,
      "Ġpark": 4291,
      "ĠResearch": 4292,
      "Ġpen": 4293,
      "Ġquality": 4294,
      "Ġbank": 4295,
      "Ġwik": 4296,
      "Ġbring": 4297,
      "Ġruns": 4298,
      "ĠMexico": 4299,
      "ĠRo": 4300,
      "Ġtarget": 4301,
      "ez": 4302,
      "Ġfarm": 4303,
      "Ġwoman": 4304,
      "Å¡": 4305,
      "ĠAtlant": 4306,
      "ban": 4307,
      "lap": 4308,
      "ĠVirginia": 4309,
      "Ġexcept": 4310,
      "Ġmostly": 4311,
      "Ġnatural": 4312,
      "Ġ:()": 4313,
      "Ġsupported": 4314,
      "ĠAssembly": 4315,
      "Ġfe": 4316,
      "Ġ1984": 4317,
      "ĠSong": 4318,
      "Ð°": 4319,
      "Ġthreat": 4320,
      "ĠYoung": 4321,
      "Ġcovered": 4322,
      "Ġ},": 4323,
      "web": 4324,
      "war": 4325,
      "Ġball": 4326,
      "Ġcele": 4327,
      "venue": 4328,
      "watch": 4329,
      "Ġleave": 4330,
      "ulf": 4331,
      "ĠCD": 4332,
      "Â·": 4333,
      "rang": 4334,
      "Ġpresented": 4335,
      "Ġlimited": 4336,
      "Ġtoday": 4337,
      "ysis": 4338,
      "state": 4339,
      "ĠPrem": 4340,
      "RS": 4341,
      "Ġmedal": 4342,
      "Ġbelong": 4343,
      "rol": 4344,
      "Ġ1985": 4345,
      "500": 4346,
      "Ġhigher": 4347,
      "Ġexperience": 4348,
      "ador": 4349,
      "And": 4350,
      "Ġselected": 4351,
      "ĠMany": 4352,
      "Ġtable": 4353,
      "Ġlaunched": 4354,
      "Ġriver": 4355,
      "Ġdirectly": 4356,
      "ĠTemplate": 4357,
      "ifying": 4358,
      "Ġdu": 4359,
      "Ġinterview": 4360,
      "Ġstudies": 4361,
      "imedia": 4362,
      "level": 4363,
      "Ġcompanies": 4364,
      "minist": 4365,
      "Ġemb": 4366,
      "Ġmoney": 4367,
      "ils": 4368,
      "AF": 4369,
      "AP": 4370,
      "rupt": 4371,
      "itting": 4372,
      "bon": 4373,
      "ĠLater": 4374,
      "heast": 4375,
      "ĠFlorida": 4376,
      "har": 4377,
      "Ġasked": 4378,
      "Ġlists": 4379,
      "Ġmanager": 4380,
      "Ġgirl": 4381,
      "Ġhistorical": 4382,
      "Ġunits": 4383,
      "Ġnumerous": 4384,
      "Ġ:*:": 4385,
      "Ġ&#": 4386,
      "121": 4387,
      "isation": 4388,
      "Ġclearly": 4389,
      "Ġphil": 4390,
      "Ġcounty": 4391,
      "Ġrunning": 4392,
      "OS": 4393,
      "ĠEmpire": 4394,
      "Ġopening": 4395,
      "Ġcreation": 4396,
      "rac": 4397,
      "Ġpurch": 4398,
      "ĠUserReport": 4399,
      "Ġentry": 4400,
      "Ġran": 4401,
      "Ġalleg": 4402,
      "ĠHot": 4403,
      "Ġ]": 4404,
      "Ġowned": 4405,
      "2006": 4406,
      "Ġpoor": 4407,
      "ĠCongress": 4408,
      "Ġbattle": 4409,
      "Ġofficer": 4410,
      "Ġsense": 4411,
      "which": 4412,
      "ait": 4413,
      "Ġweeks": 4414,
      "ĠGreek": 4415,
      "2009": 4416,
      "enty": 4417,
      "Ġraised": 4418,
      "aled": 4419,
      "ĠPak": 4420,
      "Ġassociated": 4421,
      "ĠAfC": 4422,
      "ES": 4423,
      "ĠIran": 4424,
      "ĠMah": 4425,
      "ĠIll": 4426,
      "ĠVan": 4427,
      "met": 4428,
      "change": 4429,
      "Ġcontest": 4430,
      "ĠPress": 4431,
      "Ġhighest": 4432,
      ")(+": 4433,
      "Ġfeature": 4434,
      "ĠIII": 4435,
      "ĠGar": 4436,
      "ĠDemocratic": 4437,
      "hire": 4438,
      "Ġfood": 4439,
      "Ġnorthern": 4440,
      "ĠJud": 4441,
      "Ġ[\"": 4442,
      "Ġchall": 4443,
      "Cont": 4444,
      "las": 4445,
      "Ġstaff": 4446,
      "fort": 4447,
      "Ġcommand": 4448,
      "Ġscore": 4449,
      "ĠBre": 4450,
      "ĠGen": 4451,
      "Ġsquad": 4452,
      "Ġdeclined": 4453,
      "Ġoperations": 4454,
      "Ġsouthern": 4455,
      "iance": 4456,
      "Ġjob": 4457,
      "velopment": 4458,
      "ĠStep": 4459,
      "ĠLong": 4460,
      "ĠBoard": 4461,
      "imb": 4462,
      "Is": 4463,
      "ĠBal": 4464,
      "fficient": 4465,
      "CC": 4466,
      "irmed": 4467,
      "umber": 4468,
      "ening": 4469,
      "Ġcoast": 4470,
      "opp": 4471,
      "Ġisland": 4472,
      "'-": 4473,
      "ĠAfDView": 4474,
      "ervation": 4475,
      "Ġappearance": 4476,
      "inet": 4477,
      "iÄĩ": 4478,
      "ĠEp": 4479,
      "apers": 4480,
      "Ġprison": 4481,
      "ĠExp": 4482,
      "Ġintended": 4483,
      "Ġanti": 4484,
      "Ġtheory": 4485,
      "zy": 4486,
      "ĠBas": 4487,
      "ĠSpr": 4488,
      "ares": 4489,
      "Ġshown": 4490,
      "ĠValley": 4491,
      "ĠMos": 4492,
      "Ġtraditional": 4493,
      "Ġstudent": 4494,
      "orough": 4495,
      "ĠWik": 4496,
      "ĠBank": 4497,
      "Ġspent": 4498,
      "Ġscreen": 4499,
      "Ġsenior": 4500,
      "ĠGal": 4501,
      "Ġdeter": 4502,
      "Ġonline": 4503,
      "ĠMedia": 4504,
      "idae": 4505,
      "ĠPers": 4506,
      "isk": 4507,
      "hew": 4508,
      "Ġarmy": 4509,
      "ĠWeek": 4510,
      "Ġ1983": 4511,
      "ums": 4512,
      "ĠChief": 4513,
      "ĠFri": 4514,
      "Ġclaimed": 4515,
      "Ġcontributions": 4516,
      "kins": 4517,
      "Ġspl": 4518,
      "ĠUsername": 4519,
      "ĠRadio": 4520,
      "ĠBang": 4521,
      "Ġoverlaps": 4522,
      "Ġexact": 4523,
      "ĠSocial": 4524,
      "ĠVer": 4525,
      "ĠBob": 4526,
      "Ġunit": 4527,
      "000000001": 4528,
      "ĠGoogle": 4529,
      "ĠMajor": 4530,
      "Ġplays": 4531,
      "Ġelections": 4532,
      "aily": 4533,
      "wise": 4534,
      "oto": 4535,
      "As": 4536,
      "Ġadding": 4537,
      "Ġuniversity": 4538,
      "Ġvictory": 4539,
      "ila": 4540,
      "Ġproperty": 4541,
      "Ġactivities": 4542,
      "Ġoverall": 4543,
      "Ġdoub": 4544,
      "Ġlove": 4545,
      "Ġ1982": 4546,
      "Ġspeak": 4547,
      "Ġbur": 4548,
      "ĠInt": 4549,
      "ĠâĨĴ": 4550,
      "Ġadop": 4551,
      "ennis": 4552,
      "ĠSummer": 4553,
      "ĠMu": 4554,
      "airman": 4555,
      "iece": 4556,
      "een": 4557,
      "Ġbecoming": 4558,
      "sen": 4559,
      "Ġminutes": 4560,
      "Ġmanufact": 4561,
      "2011": 4562,
      "ultural": 4563,
      "You": 4564,
      "List": 4565,
      "Ġdisplay": 4566,
      "Ġsaf": 4567,
      "rich": 4568,
      "ĠJones": 4569,
      "Ġhum": 4570,
      "urt": 4571,
      "Ġcaused": 4572,
      "{}|": 4573,
      "hl": 4574,
      "erem": 4575,
      "ĠCross": 4576,
      "uing": 4577,
      "ective": 4578,
      "ailed": 4579,
      "Ġmusical": 4580,
      "irit": 4581,
      "range": 4582,
      "Ġwood": 4583,
      "ĠLemmon": 4584,
      "Ġresolves": 4585,
      "ĠArg": 4586,
      "111": 4587,
      "Ġ60": 4588,
      "Ġaccepted": 4589,
      "Ġlanguages": 4590,
      "ĠSpecial": 4591,
      "Ġwide": 4592,
      "ĠPolit": 4593,
      "bury": 4594,
      "ii": 4595,
      "overlap": 4596,
      "Ġappl": 4597,
      "Ġbasketball": 4598,
      "ello": 4599,
      "astic": 4600,
      "'-'": 4601,
      "ologist": 4602,
      "ĠCarolina": 4603,
      "Ġdespite": 4604,
      "Ġbrief": 4605,
      "Ġactress": 4606,
      "ĠColumb": 4607,
      "Ġplatform": 4608,
      "aging": 4609,
      "Ġlines": 4610,
      "ĠRam": 4611,
      "ĠConference": 4612,
      "ylvan": 4613,
      "ĠLine": 4614,
      "Ġinitially": 4615,
      "Ġenvironment": 4616,
      "ticle": 4617,
      "ĠTop": 4618,
      "Ġmedical": 4619,
      "Ġ1979": 4620,
      "WikiProject": 4621,
      "Ġartists": 4622,
      "Ġcontinue": 4623,
      "Ġrules": 4624,
      "ĠEdward": 4625,
      "Ġstarting": 4626,
      "ĠCro": 4627,
      "104": 4628,
      "Ġtakes": 4629,
      "itu": 4630,
      "ĠLuc": 4631,
      "Ġfailed": 4632,
      "Ġreligious": 4633,
      "bi": 4634,
      "ĠAz": 4635,
      "ĠSpain": 4636,
      "110": 4637,
      "emorial": 4638,
      "Ã±": 4639,
      "Ġroute": 4640,
      "----": 4641,
      "Mar": 4642,
      "elle": 4643,
      "ĠLu": 4644,
      "ĠDaniel": 4645,
      "Ġprofessor": 4646,
      "ĠSouthern": 4647,
      "ously": 4648,
      "ading": 4649,
      ".&": 4650,
      "ova": 4651,
      "iger": 4652,
      "ĠElect": 4653,
      "Ġlived": 4654,
      "ĠHealth": 4655,
      "imum": 4656,
      "inger": 4657,
      "mann": 4658,
      "ully": 4659,
      "Ġlay": 4660,
      "ĠNone": 4661,
      "ĠLord": 4662,
      "ĠFoundation": 4663,
      "ĠUr": 4664,
      "Ġ52": 4665,
      "Ġprevent": 4666,
      "flabs": 4667,
      "wmflabs": 4668,
      "Ġtransport": 4669,
      "rid": 4670,
      "Ġveh": 4671,
      "utral": 4672,
      "Ġentered": 4673,
      "Ġtrain": 4674,
      ",-": 4675,
      "Ġstay": 4676,
      "arden": 4677,
      "ĠBlue": 4678,
      "Ġinteg": 4679,
      "izations": 4680,
      "ĠRepublican": 4681,
      "inem": 4682,
      "109": 4683,
      "ĠÅ": 4684,
      "Ġdispute": 4685,
      "ĠJewish": 4686,
      "Ġwrite": 4687,
      ";(": 4688,
      "Ġbatt": 4689,
      "ties": 4690,
      "2016": 4691,
      "iab": 4692,
      "osh": 4693,
      "come": 4694,
      "even": 4695,
      "ĠSom": 4696,
      "Ġuseful": 4697,
      "Ġ1981": 4698,
      "resp": 4699,
      "Ġattention": 4700,
      "Ġgrant": 4701,
      "ternet": 4702,
      "Ġremains": 4703,
      "ĠTime": 4704,
      "Ġchief": 4705,
      "Ġrelevant": 4706,
      "win": 4707,
      "Ġavoid": 4708,
      "ĠQueen": 4709,
      "uge": 4710,
      "Ġreasons": 4711,
      "Ġsummer": 4712,
      "Ġeth": 4713,
      "oir": 4714,
      "Ġ36": 4715,
      "Ġtrade": 4716,
      "Ġlooking": 4717,
      "Ge": 4718,
      "Ġ1972": 4719,
      "ĠEngine": 4720,
      "ĠBul": 4721,
      "Ġshot": 4722,
      "Ġcust": 4723,
      "2013": 4724,
      "iga": 4725,
      "103": 4726,
      "Ġmerge": 4727,
      "ĠOk": 4728,
      "Ġcontrovers": 4729,
      "wide": 4730,
      "Ġer": 4731,
      "Ġobvious": 4732,
      "onym": 4733,
      "Ġstudied": 4734,
      "Ġut": 4735,
      "Ġborder": 4736,
      "ba": 4737,
      "Ġprint": 4738,
      "Ġ32": 4739,
      "Ġrecording": 4740,
      "ĠLin": 4741,
      "Ġmeeting": 4742,
      "Ġcontext": 4743,
      "Ġrevert": 4744,
      "emic": 4745,
      "ĠSports": 4746,
      "vis": 4747,
      "Ġcomes": 4748,
      "Ġapproximately": 4749,
      "Ġsup": 4750,
      "ĠGh": 4751,
      "ela": 4752,
      "Ġlatter": 4753,
      "ĠWal": 4754,
      "Ġ1974": 4755,
      "Ġperhaps": 4756,
      "Ġworth": 4757,
      "2019": 4758,
      "OC": 4759,
      "ieut": 4760,
      "2012": 4761,
      "ĠKeep": 4762,
      "set": 4763,
      "ylvania": 4764,
      "pupp": 4765,
      "Ġ1978": 4766,
      "Ġseat": 4767,
      "ĠDutch": 4768,
      "2014": 4769,
      "Ġbus": 4770,
      "Ġfoot": 4771,
      "arriage": 4772,
      ";&#": 4773,
      "ĠFinal": 4774,
      "Man": 4775,
      "onom": 4776,
      "Ġ38": 4777,
      "Ġacademic": 4778,
      "ĠAndrew": 4779,
      "ĠRailway": 4780,
      "ĠOf": 4781,
      "book": 4782,
      "bo": 4783,
      "Ġ1976": 4784,
      "ĠDev": 4785,
      "Ġquarter": 4786,
      "Ġobtain": 4787,
      "99999999": 4788,
      "BS": 4789,
      "hemat": 4790,
      "Ġpassed": 4791,
      "atively": 4792,
      "Ġnumbers": 4793,
      "ĠHead": 4794,
      "ĠOlympics": 4795,
      "Ġcentre": 4796,
      "2015": 4797,
      "titleUser": 4798,
      "ĠMot": 4799,
      "ĠAp": 4800,
      "Ġstations": 4801,
      "ridge": 4802,
      "Ð¾": 4803,
      "ĠWind": 4804,
      "Ġfamilies": 4805,
      "abeth": 4806,
      "Ġgra": 4807,
      "Ind": 4808,
      "Ġplaces": 4809,
      "United": 4810,
      "ĠWilliams": 4811,
      "ĠInf": 4812,
      "ĠJac": 4813,
      "ĠPop": 4814,
      "ĠDi": 4815,
      "ĠPeak": 4816,
      "Ġvan": 4817,
      "Ġcouncil": 4818,
      "ĠBow": 4819,
      "ersey": 4820,
      "2000": 4821,
      "Ġserious": 4822,
      "Ġdead": 4823,
      "Ġenergy": 4824,
      "Ġmanagement": 4825,
      "Ġwithd": 4826,
      "Ġtried": 4827,
      "Ġnewspaper": 4828,
      "Ġoperated": 4829,
      "Im": 4830,
      "ĠPhilipp": 4831,
      "ĠOpen": 4832,
      "ceding": 4833,
      "PG": 4834,
      "Ġ1975": 4835,
      "Ġchart": 4836,
      "Ġsurround": 4837,
      "espite": 4838,
      "pret": 4839,
      "ĠPersonal": 4840,
      "ĠCivil": 4841,
      "ĠEll": 4842,
      "division": 4843,
      "Ġrecently": 4844,
      "ĠPrince": 4845,
      "sky": 4846,
      "oston": 4847,
      "Ġlegisl": 4848,
      "usband": 4849,
      "ĠDirector": 4850,
      "Ġsecondary": 4851,
      "inf": 4852,
      "ĠIslam": 4853,
      "Ġreviews": 4854,
      "Ġnecessary": 4855,
      "ricket": 4856,
      "Ġprof": 4857,
      "Ġawards": 4858,
      "ĠJohnson": 4859,
      "ĠGA": 4860,
      "2017": 4861,
      "Ġ1977": 4862,
      "ĠKar": 4863,
      "ĠTre": 4864,
      "Ġpurpose": 4865,
      "MS": 4866,
      "Ġarrest": 4867,
      "ĠEastern": 4868,
      "Ġcouple": 4869,
      "Ġflag": 4870,
      "Ġteacher": 4871,
      "Ġcompletely": 4872,
      "ader": 4873,
      "2018": 4874,
      "onia": 4875,
      "Ġolder": 4876,
      "inary": 4877,
      "ĠCre": 4878,
      "Ġprojects": 4879,
      "ĠMcC": 4880,
      "ĠStation": 4881,
      "Ġprotection": 4882,
      "Ġ~": 4883,
      "Ġbass": 4884,
      "Ġlarger": 4885,
      "Ġnative": 4886,
      "anner": 4887,
      "ĠCy": 4888,
      "ansas": 4889,
      "Ġreferred": 4890,
      "Ġseasons": 4891,
      "ĠPortug": 4892,
      "Ġban": 4893,
      "Ġstatement": 4894,
      "ĠMax": 4895,
      "phy": 4896,
      "ging": 4897,
      "Ġwanted": 4898,
      "gypt": 4899,
      ";[": 4900,
      "Ġ1968": 4901,
      "osoph": 4902,
      "Ġ1973": 4903,
      "Ġretired": 4904,
      "Ġsister": 4905,
      "Ġhot": 4906,
      "enant": 4907,
      "ÅĤ": 4908,
      "hr": 4909,
      "Inf": 4910,
      "FD": 4911,
      "Ã¡n": 4912,
      "ucle": 4913,
      "Ġassum": 4914,
      "107": 4915,
      "Ġbenef": 4916,
      "inners": 4917,
      "Ġpret": 4918,
      "Ġserving": 4919,
      "Ġleaving": 4920,
      "under": 4921,
      "Ġvandalism": 4922,
      "jo": 4923,
      "ji": 4924,
      "itation": 4925,
      "iring": 4926,
      "itude": 4927,
      "illy": 4928,
      "Ġcriteria": 4929,
      "Ġbasis": 4930,
      "Ġprincip": 4931,
      "Ġ1940": 4932,
      "elled": 4933,
      "Ġpaper": 4934,
      "Ġinn": 4935,
      "Ġclean": 4936,
      "Ġremaining": 4937,
      "Ġdire": 4938,
      "Ġ1945": 4939,
      "ĠPacific": 4940,
      "ulated": 4941,
      "ension": 4942,
      "hy": 4943,
      "ĠAk": 4944,
      "orter": 4945,
      "ĠCS": 4946,
      "ĠCharl": 4947,
      "Ġimpact": 4948,
      "ĠProp": 4949,
      "Ġnature": 4950,
      "iced": 4951,
      "Ġeconomic": 4952,
      "Ġforeign": 4953,
      "Ġcited": 4954,
      "ĠNight": 4955,
      "ĠHung": 4956,
      "ograp": 4957,
      "ellig": 4958,
      "agement": 4959,
      "yer": 4960,
      "Ġknowledge": 4961,
      "ĠBoth": 4962,
      "ON": 4963,
      "ĠMid": 4964,
      "ackson": 4965,
      "Ġmaster": 4966,
      "group": 4967,
      "Ġsentence": 4968,
      "Ġvotes": 4969,
      "ifically": 4970,
      "Ġannual": 4971,
      "ĠJr": 4972,
      "Ġformat": 4973,
      "sm": 4974,
      "Ġir": 4975,
      "Ġ55": 4976,
      "ĠDevelopment": 4977,
      "Ġcause": 4978,
      "present": 4979,
      "prot": 4980,
      "Ġmem": 4981,
      "Ġprograms": 4982,
      "Ġ1971": 4983,
      "Ġpotential": 4984,
      "ession": 4985,
      "ĠBC": 4986,
      "ears": 4987,
      "Ġdetails": 4988,
      "onic": 4989,
      "antry": 4990,
      "lav": 4991,
      "Ġemerg": 4992,
      "2005": 4993,
      "bar": 4994,
      "Ġpropos": 4995,
      "ek": 4996,
      "Ġratio": 4997,
      "omer": 4998,
      "Ġpick": 4999,
      "112": 5000,
      "Ġ@": 5001,
      "ĠPrime": 5002,
      "ika": 5003,
      "Ġadditions": 5004,
      "Ġmiddle": 5005,
      "Ġago": 5006,
      "otes": 5007,
      "Ġdedic": 5008,
      "Ġfamous": 5009,
      "Ġgives": 5010,
      "Red": 5011,
      "Ġste": 5012,
      "sylvania": 5013,
      "ying": 5014,
      "ĠTheatre": 5015,
      "ĠPolish": 5016,
      "sv": 5017,
      "ĠKitt": 5018,
      "ais": 5019,
      "urban": 5020,
      "Ġnine": 5021,
      "ĠFC": 5022,
      "ager": 5023,
      "Ġshoot": 5024,
      "Ġcultural": 5025,
      "ĠCentre": 5026,
      "atically": 5027,
      "Ġmind": 5028,
      "anguage": 5029,
      "Ġforced": 5030,
      "rod": 5031,
      "ĠTheir": 5032,
      "burgh": 5033,
      "Ġcommunic": 5034,
      "Ġstep": 5035,
      "Spam": 5036,
      "reater": 5037,
      "rice": 5038,
      "On": 5039,
      "Ġquestions": 5040,
      "Ġ1969": 5041,
      "ĠProvince": 5042,
      "nic": 5043,
      "thur": 5044,
      "Ġsched": 5045,
      "ĠMike": 5046,
      "Ġincreased": 5047,
      "ĠScotland": 5048,
      "Ġ1930": 5049,
      "ĠCamb": 5050,
      "ĠJean": 5051,
      "Ġillust": 5052,
      "ĠDun": 5053,
      "ĠAnother": 5054,
      "ĠField": 5055,
      "Ġsubsequently": 5056,
      "itors": 5057,
      "Ġprovides": 5058,
      "png": 5059,
      "Ġerr": 5060,
      "Ġrow": 5061,
      "ĠRaj": 5062,
      "Ġmach": 5063,
      "undred": 5064,
      "Ġequip": 5065,
      "Ġkept": 5066,
      "edu": 5067,
      "Ġfederal": 5068,
      "ĠDespite": 5069,
      "ĠScottish": 5070,
      "Ġmap": 5071,
      ";\"|": 5072,
      "ĠLatin": 5073,
      "ĠCat": 5074,
      "obile": 5075,
      "Ġcolon": 5076,
      "ĠSystem": 5077,
      "Ġearned": 5078,
      "114": 5079,
      "uts": 5080,
      "ĠEarth": 5081,
      "2020": 5082,
      "ims": 5083,
      "Ð¸": 5084,
      "cean": 5085,
      "agename": 5086,
      "king": 5087,
      "Ġregarding": 5088,
      "cap": 5089,
      "Ġserve": 5090,
      "Ġrenamed": 5091,
      "Ġconstitut": 5092,
      "Äį": 5093,
      "Ġrecomm": 5094,
      "alse": 5095,
      "Ġappearances": 5096,
      "Ġgenus": 5097,
      "ĠChris": 5098,
      "arters": 5099,
      "ga": 5100,
      "Ġmix": 5101,
      "Ġhusband": 5102,
      "Ġbomb": 5103,
      "ĠKe": 5104,
      "Ġlooks": 5105,
      "Ġface": 5106,
      "Ġsituation": 5107,
      "ĠGeorgia": 5108,
      "Ġmovie": 5109,
      "ĠGame": 5110,
      "rc": 5111,
      "ĠBook": 5112,
      "adel": 5113,
      "titleTalk": 5114,
      "ĠBritain": 5115,
      "ĠVill": 5116,
      "chen": 5117,
      "vest": 5118,
      "Ġtold": 5119,
      "ĠHa": 5120,
      "Ġlisting": 5121,
      "Ġwestern": 5122,
      "Ġcollect": 5123,
      "Ġ1967": 5124,
      "Ġattacks": 5125,
      "quest": 5126,
      "ĠJoe": 5127,
      "andon": 5128,
      "Ġpicture": 5129,
      "ĠAsia": 5130,
      "Ġfigure": 5131,
      "df": 5132,
      "ĠJournal": 5133,
      "108": 5134,
      "writer": 5135,
      "Ġdeep": 5136,
      "Ġfine": 5137,
      "ras": 5138,
      "Ġtopics": 5139,
      "Ġmale": 5140,
      "ĠAlexander": 5141,
      "ĠMiddle": 5142,
      "eld": 5143,
      "Ġpagename": 5144,
      "Ġnation": 5145,
      "Ġfrequent": 5146,
      "deletion": 5147,
      "ĠFour": 5148,
      "Ġalongside": 5149,
      "ĠSupport": 5150,
      "Ġinform": 5151,
      "Ġdemonstr": 5152,
      "ĠGovernor": 5153,
      "ients": 5154,
      "Ġroom": 5155,
      "Ġunivers": 5156,
      "]).": 5157,
      "ĠStan": 5158,
      "imal": 5159,
      "ĠRay": 5160,
      "ĠBiography": 5161,
      "ĠSoc": 5162,
      "ĠOb": 5163,
      "ĠEnter": 5164,
      "AD": 5165,
      "Ġ45": 5166,
      "efef": 5167,
      "gl": 5168,
      "ĠNow": 5169,
      "Ġfinancial": 5170,
      "Ġbound": 5171,
      "Ġdetermin": 5172,
      "Ġbelieved": 5173,
      "Ġregional": 5174,
      "ĠBh": 5175,
      "ĠMov": 5176,
      "Ġexpanded": 5177,
      "Ġparents": 5178,
      "rig": 5179,
      "Ġhelped": 5180,
      "Ġforest": 5181,
      "Ġbot": 5182,
      "Ġcode": 5183,
      "dd": 5184,
      "ĠHarr": 5185,
      "Ġcontact": 5186,
      "Ġhighly": 5187,
      "Ġtherefore": 5188,
      "Ġscores": 5189,
      "nam": 5190,
      "ĠCop": 5191,
      "Ġrate": 5192,
      "arp": 5193,
      "je": 5194,
      "anced": 5195,
      "uries": 5196,
      "ĠOlympic": 5197,
      "Ġforms": 5198,
      "Ġacquired": 5199,
      "Ġindividuals": 5200,
      "ĠDisc": 5201,
      "ĠRod": 5202,
      "Ġinstr": 5203,
      "ĠEgypt": 5204,
      "agn": 5205,
      "Ġconne": 5206,
      "Ġalbums": 5207,
      "standing": 5208,
      "Ġlaws": 5209,
      "ĠSa": 5210,
      "arrow": 5211,
      "edd": 5212,
      "ĠPoland": 5213,
      "Ġgets": 5214,
      "ĠJes": 5215,
      "Ġexisting": 5216,
      "ĠBroad": 5217,
      "Ġnearly": 5218,
      "ĠBoston": 5219,
      "enge": 5220,
      "mas": 5221,
      "ĠMichigan": 5222,
      "ĠKent": 5223,
      "ancy": 5224,
      "atus": 5225,
      "Ġdouble": 5226,
      "Ġgetting": 5227,
      "Ġpositive": 5228,
      "Ġvon": 5229,
      "track": 5230,
      "Ġcomputer": 5231,
      "rawn": 5232,
      "ĠOx": 5233,
      "Ġasp": 5234,
      "Ġpil": 5235,
      "Ġowner": 5236,
      "ĠLittle": 5237,
      "real": 5238,
      "Ġmainly": 5239,
      "ĠStadium": 5240,
      "ĠEconom": 5241,
      "Ġfaith": 5242,
      "akh": 5243,
      "Ġremove": 5244,
      "uer": 5245,
      "Ġelements": 5246,
      "ĠDet": 5247,
      "Ġamb": 5248,
      "Ġfle": 5249,
      "ĠPennsylvania": 5250,
      "Ã¸": 5251,
      "ĠCoast": 5252,
      "article": 5253,
      "do": 5254,
      "ĠFrancisco": 5255,
      "acc": 5256,
      "NA": 5257,
      "ĠKong": 5258,
      "ĠKen": 5259,
      "Ġ1964": 5260,
      "Ġcities": 5261,
      "yes": 5262,
      "ava": 5263,
      "anth": 5264,
      "Ġprimarily": 5265,
      "verse": 5266,
      "Ġsea": 5267,
      "ĠLight": 5268,
      "ĠOffice": 5269,
      "ĠAirport": 5270,
      "ĠAv": 5271,
      "115": 5272,
      "ĠChild": 5273,
      "ĠOhio": 5274,
      "à¸": 5275,
      "rance": 5276,
      "Ġpercent": 5277,
      "ĠOrig": 5278,
      "Ġrational": 5279,
      "Ġinfluence": 5280,
      "acity": 5281,
      "pper": 5282,
      "Ġdyn": 5283,
      "Don": 5284,
      "_{": 5285,
      "Ġtechnology": 5286,
      "poration": 5287,
      "Ġprominent": 5288,
      "Ġ1920": 5289,
      "Ġincrease": 5290,
      "Ġsequ": 5291,
      "aly": 5292,
      "ĠEliz": 5293,
      "Pre": 5294,
      "ĠNotable": 5295,
      "ĠBab": 5296,
      "Ġarm": 5297,
      "Ġinitial": 5298,
      "Ġones": 5299,
      "Ġconfirmed": 5300,
      "Ġult": 5301,
      "Ġroll": 5302,
      "Ġcharg": 5303,
      "Ġsyn": 5304,
      "rad": 5305,
      "ĠTod": 5306,
      "ĠGallery": 5307,
      "Ġapparent": 5308,
      "ĠJackson": 5309,
      "Ġexecutive": 5310,
      "ĠBern": 5311,
      "Ġprefer": 5312,
      "ieutenant": 5313,
      "orship": 5314,
      "ĠCard": 5315,
      "Ġextended": 5316,
      "Ġfile": 5317,
      "Ġwinner": 5318,
      "bu": 5319,
      "illed": 5320,
      "ĠSenate": 5321,
      "Ġcitiz": 5322,
      "Ġcompeted": 5323,
      "Col": 5324,
      "Ġmur": 5325,
      "BI": 5326,
      "ĠAsian": 5327,
      "ĠShow": 5328,
      "adesh": 5329,
      "ĠLab": 5330,
      "Ġpsych": 5331,
      "Ġgoes": 5332,
      "ĠWater": 5333,
      "ĠRem": 5334,
      "ilding": 5335,
      "raine": 5336,
      "ĠFair": 5337,
      "Ġ1965": 5338,
      "ĠAlbert": 5339,
      "Ġconcerns": 5340,
      "Ġsummary": 5341,
      "iec": 5342,
      "riz": 5343,
      "ĠBBC": 5344,
      "SP": 5345,
      "Ġiniti": 5346,
      "999": 5347,
      "Ġturned": 5348,
      "ĠTem": 5349,
      "ĠLy": 5350,
      "iot": 5351,
      "Ġsn": 5352,
      "teen": 5353,
      "Infobox": 5354,
      "ĠPo": 5355,
      "Ġvs": 5356,
      "ĠWall": 5357,
      "Ġcomposed": 5358,
      "ĠTam": 5359,
      "Ġargument": 5360,
      "peror": 5361,
      "Ġ1944": 5362,
      "ĠWild": 5363,
      "icine": 5364,
      "Ġsoftware": 5365,
      "ĠSecretary": 5366,
      "ĠColl": 5367,
      "ĠDie": 5368,
      "ĠSea": 5369,
      "Ġrestrict": 5370,
      "Ġactivity": 5371,
      "Ġimmediately": 5372,
      "ĠCreek": 5373,
      "Ġchem": 5374,
      "Ġcreating": 5375,
      "ederation": 5376,
      "Ġ1966": 5377,
      "Ġimplement": 5378,
      "una": 5379,
      "Ġpolicies": 5380,
      "Ġfifth": 5381,
      "Ġtitles": 5382,
      "itage": 5383,
      "ottom": 5384,
      "ori": 5385,
      "Ġsociety": 5386,
      "ĠArticle": 5387,
      "ĠBase": 5388,
      "gov": 5389,
      "Ġassessed": 5390,
      "vin": 5391,
      "Ġstatistics": 5392,
      "Ġoffered": 5393,
      "132": 5394,
      "Ġmeant": 5395,
      "ishes": 5396,
      "ĠBelg": 5397,
      "ĠGirl": 5398,
      "rators": 5399,
      "hat": 5400,
      "Ġprovince": 5401,
      "Ġrespond": 5402,
      "Ġminister": 5403,
      "Ġpartn": 5404,
      "ĠWay": 5405,
      "enger": 5406,
      "ref": 5407,
      "Ġlinked": 5408,
      "ĠHong": 5409,
      "ĠThree": 5410,
      "cussion": 5411,
      "Ġsuggested": 5412,
      "ĠJon": 5413,
      "ĠWork": 5414,
      "Ġconditions": 5415,
      "Ġvariety": 5416,
      "ĠRog": 5417,
      "Ġcarried": 5418,
      "ĠYour": 5419,
      "Ġ70": 5420,
      "Ġtemper": 5421,
      "Ġelev": 5422,
      "ĠUnivers": 5423,
      "ami": 5424,
      "Ġparticipated": 5425,
      "mad": 5426,
      "Ġtroops": 5427,
      "ione": 5428,
      "ĠPolice": 5429,
      "Ġsucceed": 5430,
      "Ġletter": 5431,
      "Ġcelebr": 5432,
      "unte": 5433,
      "000000": 5434,
      "ĠOffic": 5435,
      "Ġforward": 5436,
      "Ġapproach": 5437,
      "Ġpra": 5438,
      "eds": 5439,
      "Ġglobal": 5440,
      "Ġsettlement": 5441,
      "alle": 5442,
      "orry": 5443,
      "Ġfellow": 5444,
      "Ġedited": 5445,
      "2004": 5446,
      "Ġbehavior": 5447,
      "aylor": 5448,
      "Ġsurface": 5449,
      "Ã£": 5450,
      "osa": 5451,
      "Ġmoving": 5452,
      "If": 5453,
      "ulations": 5454,
      "ĠRepresent": 5455,
      "Ġmechan": 5456,
      "opher": 5457,
      "ĠJeff": 5458,
      "ĠFire": 5459,
      "ĠOtt": 5460,
      "Ġtracks": 5461,
      "vol": 5462,
      "Ġcat": 5463,
      "equ": 5464,
      "Ġshare": 5465,
      "chester": 5466,
      "Ġfort": 5467,
      "Ġ80": 5468,
      "yo": 5469,
      "athan": 5470,
      "stone": 5471,
      "ĠRf": 5472,
      "erk": 5473,
      "Ġexecut": 5474,
      "113": 5475,
      "ĠEnd": 5476,
      "ĠConn": 5477,
      "onto": 5478,
      "Ġyouth": 5479,
      "Ġadvert": 5480,
      "ĠFar": 5481,
      "oted": 5482,
      "ĠRoute": 5483,
      "ĠCorps": 5484,
      "Ġdro": 5485,
      "eline": 5486,
      "Ġmuseum": 5487,
      "Ġhop": 5488,
      "ĠMir": 5489,
      "Ġheavy": 5490,
      "ĠForm": 5491,
      "Ġguidelines": 5492,
      "ĠOrgan": 5493,
      "ables": 5494,
      "EN": 5495,
      "ĠTrack": 5496,
      "utt": 5497,
      "ĠBoy": 5498,
      "Ġactual": 5499,
      "Ġepisodes": 5500,
      "Ġimprove": 5501,
      "Pr": 5502,
      "ighter": 5503,
      "Ġhospital": 5504,
      "Ġresponsible": 5505,
      "Ġmom": 5506,
      "ographer": 5507,
      "free": 5508,
      "rog": 5509,
      "Ġdrama": 5510,
      "usion": 5511,
      "ĠWars": 5512,
      "rie": 5513,
      "Ġsites": 5514,
      "ĠEst": 5515,
      "Ex": 5516,
      "Ġregist": 5517,
      "Ðµ": 5518,
      "ĠArm": 5519,
      "image": 5520,
      "ĠLibrary": 5521,
      "ĠOs": 5522,
      "Ġconsists": 5523,
      "ĠAnth": 5524,
      "Ġmarriage": 5525,
      "icks": 5526,
      "ĠHome": 5527,
      "Ġassistant": 5528,
      "Ġactions": 5529,
      "Ġstra": 5530,
      "Ġsimple": 5531,
      "ĠKenn": 5532,
      "vention": 5533,
      "ĠÎ": 5534,
      "Ġfeed": 5535,
      "Ġdepartment": 5536,
      "aga": 5537,
      "ĠReview": 5538,
      "101": 5539,
      "Ġunless": 5540,
      "ĠArgent": 5541,
      "Ġpoet": 5542,
      "ĠAh": 5543,
      "Ġcrew": 5544,
      "Ġsan": 5545,
      "Ġpan": 5546,
      "unch": 5547,
      "arry": 5548,
      "Ġdefeat": 5549,
      "Ġtill": 5550,
      "izes": 5551,
      "Ġestim": 5552,
      "ĠPrize": 5553,
      "Ġissued": 5554,
      "inois": 5555,
      "efore": 5556,
      "ĠBec": 5557,
      "Ġencour": 5558,
      "Ġ65": 5559,
      "Ġgiving": 5560,
      "isting": 5561,
      "Ġrout": 5562,
      "ĠBusiness": 5563,
      "igr": 5564,
      "Ġunsigned": 5565,
      "Ġconcerning": 5566,
      "nes": 5567,
      "ogs": 5568,
      "ĠMarc": 5569,
      "ĠAny": 5570,
      "ĠBatt": 5571,
      "ĠHospital": 5572,
      "Ġoperation": 5573,
      "Ġfollows": 5574,
      "Ġhonor": 5575,
      "ĠConf": 5576,
      "Ġvalid": 5577,
      "Ġ90": 5578,
      "ulpt": 5579,
      "amin": 5580,
      "ronic": 5581,
      "Ġhosted": 5582,
      "ĠFA": 5583,
      "bed": 5584,
      "ĠNC": 5585,
      "Dec": 5586,
      "icted": 5587,
      "Ġextra": 5588,
      "ewhere": 5589,
      "aters": 5590,
      "Ġcoming": 5591,
      "Ġbecomes": 5592,
      "Ġcounter": 5593,
      "ĠGene": 5594,
      "orning": 5595,
      "ĠLi": 5596,
      "Ġfavor": 5597,
      "ambig": 5598,
      "ĠPen": 5599,
      "Ġofficially": 5600,
      "TA": 5601,
      "Ġgraduated": 5602,
      "Ġdise": 5603,
      "ĠRegiment": 5604,
      "Ġquickly": 5605,
      "Ġtempl": 5606,
      "ĠQual": 5607,
      "Ġbridge": 5608,
      "Gr": 5609,
      "uro": 5610,
      "Ġcarry": 5611,
      "Ġincorpor": 5612,
      "ogue": 5613,
      "ĠKir": 5614,
      "ĠTelevision": 5615,
      "ois": 5616,
      "Ġstories": 5617,
      "Ġdepart": 5618,
      "Ġships": 5619,
      "protected": 5620,
      "titleWikipedia": 5621,
      "ĠBerlin": 5622,
      "Ġefforts": 5623,
      "102": 5624,
      "ĠRen": 5625,
      "Ġ::*": 5626,
      "ĠVen": 5627,
      "erb": 5628,
      "Ġchannel": 5629,
      "ppose": 5630,
      "uy": 5631,
      "ependence": 5632,
      "Ġinterpret": 5633,
      "ĠThank": 5634,
      "ĠVictoria": 5635,
      "Ġmunicipality": 5636,
      "Ġ1963": 5637,
      "archive": 5638,
      "des": 5639,
      "Ġunc": 5640,
      "rics": 5641,
      "ĠIslands": 5642,
      "ĠSund": 5643,
      "eller": 5644,
      "_%": 5645,
      "ivity": 5646,
      "Ġplans": 5647,
      "Ġwatch": 5648,
      "Ä±": 5649,
      "Ġmanaged": 5650,
      "ĠLim": 5651,
      "uct": 5652,
      "isf": 5653,
      "ho": 5654,
      "ĠJoh": 5655,
      "Ġ1962": 5656,
      "lan": 5657,
      "Ġdiss": 5658,
      "Ġspecifically": 5659,
      "Ġproducts": 5660,
      "ansion": 5661,
      "Ġalone": 5662,
      "Ġdiscovered": 5663,
      "Ġfeaturing": 5664,
      "Ġwidely": 5665,
      "ĠMedal": 5666,
      "ĠDeath": 5667,
      "Ġelectric": 5668,
      "ĠLes": 5669,
      "Ġeastern": 5670,
      "ĠCrit": 5671,
      "ributions": 5672,
      "Ġpretty": 5673,
      "ĠBa": 5674,
      "Ġdirection": 5675,
      "eman": 5676,
      "Ġtransferred": 5677,
      "Ġsal": 5678,
      "Ġsymb": 5679,
      "Ġweight": 5680,
      "ĠKorea": 5681,
      "Ġadj": 5682,
      "ĠBrig": 5683,
      "ector": 5684,
      "All": 5685,
      "andy": 5686,
      "ĠNon": 5687,
      "Ġanalysis": 5688,
      "Ġreach": 5689,
      "ĠAnton": 5690,
      "Ġfully": 5691,
      "Ġcard": 5692,
      "Ġdedicated": 5693,
      "ĠMinistry": 5694,
      "Ġcorn": 5695,
      "ubs": 5696,
      "itel": 5697,
      "pin": 5698,
      "Ġsecurity": 5699,
      "Ġwalk": 5700,
      "iling": 5701,
      "Ġang": 5702,
      "MA": 5703,
      "Will": 5704,
      "Ġign": 5705,
      "ecting": 5706,
      "ĠJersey": 5707,
      "ĠSyd": 5708,
      "rcid": 5709,
      "Ġtell": 5710,
      "Ġreading": 5711,
      "Ġfix": 5712,
      "Ġability": 5713,
      "etts": 5714,
      "Ġnor": 5715,
      "Ġentirely": 5716,
      "Ġcertainly": 5717,
      "unn": 5718,
      "2022": 5719,
      "nce": 5720,
      "aven": 5721,
      "ĠSpacewatch": 5722,
      "Ġfinally": 5723,
      "osure": 5724,
      "Ġoil": 5725,
      "anna": 5726,
      "ĠTurk": 5727,
      "ype": 5728,
      "Ġsitu": 5729,
      "Ġ1942": 5730,
      "ĠFamily": 5731,
      "Ġanswer": 5732,
      "law": 5733,
      "Ġmist": 5734,
      "alion": 5735,
      "ĠStephen": 5736,
      "ters": 5737,
      "from": 5738,
      "ĠCorn": 5739,
      "Ġunion": 5740,
      "Ġbey": 5741,
      "Ġagreement": 5742,
      "ĠSu": 5743,
      "edom": 5744,
      "Ġhistoric": 5745,
      "ĠTa": 5746,
      "ucky": 5747,
      "inson": 5748,
      "Ġstrateg": 5749,
      "ocked": 5750,
      "Ġjun": 5751,
      "uous": 5752,
      "cluding": 5753,
      "respond": 5754,
      "Ġancient": 5755,
      "oration": 5756,
      "ĠMoh": 5757,
      "ĠBad": 5758,
      "Ġincreasing": 5759,
      "weight": 5760,
      "escription": 5761,
      "Ġcell": 5762,
      "ĠColumbia": 5763,
      "Ġstars": 5764,
      "ĠChap": 5765,
      "perial": 5766,
      "Ġjoin": 5767,
      "ĠGuard": 5768,
      "Ġsingles": 5769,
      "season": 5770,
      "lay": 5771,
      "ĠAff": 5772,
      "ĠDoug": 5773,
      "Ġchampion": 5774,
      "sort": 5775,
      "avid": 5776,
      "achel": 5777,
      "Ġsockpupp": 5778,
      "Ġeffort": 5779,
      "ĠCE": 5780,
      "gn": 5781,
      "Ġwikipedia": 5782,
      "Ġlogs": 5783,
      "ĠLew": 5784,
      "Ġhundred": 5785,
      "ĠTro": 5786,
      "Ġmurder": 5787,
      "Ġtitled": 5788,
      "Ġpath": 5789,
      "ĠKim": 5790,
      "Ġlives": 5791,
      "Ġfirm": 5792,
      "count": 5793,
      "ĠElizabeth": 5794,
      "ĠAthlet": 5795,
      "Ġrare": 5796,
      "aki": 5797,
      "ĠEven": 5798,
      "ĠAsh": 5799,
      "2021": 5800,
      "ĠLet": 5801,
      "kin": 5802,
      "Ġbeyond": 5803,
      "ĠAtt": 5804,
      "Ġfriends": 5805,
      "Ġgreen": 5806,
      "2003": 5807,
      "ĠFI": 5808,
      "We": 5809,
      "point": 5810,
      "Ġmerged": 5811,
      "Ġsport": 5812,
      "Ġ1961": 5813,
      "ĠBand": 5814,
      "Ġsem": 5815,
      "ĠViet": 5816,
      "isters": 5817,
      "itable": 5818,
      "ocation": 5819,
      "Ġsens": 5820,
      "Ġpattern": 5821,
      "Ġroles": 5822,
      "ĠBorn": 5823,
      "Ġvoice": 5824,
      "ĠConst": 5825,
      "ĠHind": 5826,
      "Ġsufficient": 5827,
      "Ġtrib": 5828,
      "Ġhouses": 5829,
      "ĠDuke": 5830,
      "lets": 5831,
      "Ġice": 5832,
      "esh": 5833,
      "achus": 5834,
      "ĠJustice": 5835,
      "Ġadministrative": 5836,
      "Ġthous": 5837,
      "greg": 5838,
      "ĠHug": 5839,
      "ĠWin": 5840,
      "Ġ1943": 5841,
      "found": 5842,
      "iest": 5843,
      "ĠTok": 5844,
      "ĠFederal": 5845,
      "ĠHy": 5846,
      "ĠPoint": 5847,
      "Qu": 5848,
      "ĠProject": 5849,
      "elly": 5850,
      "ensity": 5851,
      "Ã©e": 5852,
      "Ġslight": 5853,
      "zech": 5854,
      ";Â·": 5855,
      "Ġtim": 5856,
      "Ġpeak": 5857,
      "het": 5858,
      "Ġsplit": 5859,
      "lem": 5860,
      "Con": 5861,
      "istance": 5862,
      "He": 5863,
      "ĠNic": 5864,
      "Ġ39": 5865,
      "Ãº": 5866,
      "Ġviews": 5867,
      "ĠSquad": 5868,
      "Ġalt": 5869,
      "Ġtwice": 5870,
      "Ġnotes": 5871,
      "ĠGer": 5872,
      "ĠTechnology": 5873,
      "water": 5874,
      "bec": 5875,
      "ĠIllinois": 5876,
      "mir": 5877,
      "Ġpossibly": 5878,
      "gs": 5879,
      "jan": 5880,
      "For": 5881,
      "quarters": 5882,
      "Ġliterature": 5883,
      "ĠProgram": 5884,
      "Arch": 5885,
      "Ġtouch": 5886,
      "Ġ1948": 5887,
      "notable": 5888,
      "Ġtypes": 5889,
      "ĠNether": 5890,
      "Ġchap": 5891,
      "ĠRet": 5892,
      "El": 5893,
      "manent": 5894,
      "ĠÂ£": 5895,
      "ĠHuman": 5896,
      "Ġcontain": 5897,
      "chestra": 5898,
      "%/": 5899,
      "ĠAN": 5900,
      "ĠPakistan": 5901,
      "ĠAdminist": 5902,
      "ĠHo": 5903,
      "Ġagreed": 5904,
      "ĠIS": 5905,
      "Ġpurs": 5906,
      "Ġneighbor": 5907,
      "Ġrevealed": 5908,
      "][": 5909,
      "olitan": 5910,
      "125": 5911,
      "Ġclubs": 5912,
      "ĠUsers": 5913,
      "Ġexpected": 5914,
      "ĠWrit": 5915,
      "midd": 5916,
      "century": 5917,
      "ĠBell": 5918,
      "ĠSydney": 5919,
      "Ġera": 5920,
      "ĠSab": 5921,
      "igen": 5922,
      "olid": 5923,
      "2001": 5924,
      "ĠSurvey": 5925,
      "icial": 5926,
      "Ġmeets": 5927,
      "HL": 5928,
      "mi": 5929,
      "Ġfails": 5930,
      "Ġdigital": 5931,
      "dr": 5932,
      "cluded": 5933,
      "ilton": 5934,
      "ouble": 5935,
      "ĠUSA": 5936,
      "Ġlevels": 5937,
      "place": 5938,
      "sa": 5939,
      "Ġstandards": 5940,
      "body": 5941,
      "efefe": 5942,
      "fefefe": 5943,
      "Ġbaseball": 5944,
      "Ġcritical": 5945,
      "Ġbal": 5946,
      "middot": 5947,
      "Ġsubstant": 5948,
      "Ġnearby": 5949,
      "Ġotherwise": 5950,
      "Ġdrug": 5951,
      "Ġ1941": 5952,
      "Ġdomin": 5953,
      "ouri": 5954,
      "ĠMuslim": 5955,
      "rical": 5956,
      "Ġsolo": 5957,
      "encies": 5958,
      "ĠSteve": 5959,
      "aped": 5960,
      "Ġtrial": 5961,
      "Ġheart": 5962,
      "map": 5963,
      "estic": 5964,
      "film": 5965,
      "ĠMaria": 5966,
      "black": 5967,
      "GNG": 5968,
      "Ġ:::::::": 5969,
      "Ġinside": 5970,
      "link": 5971,
      "amber": 5972,
      "ĠSwedish": 5973,
      "iny": 5974,
      "Ġdark": 5975,
      "ĠRom": 5976,
      "anga": 5977,
      "usc": 5978,
      "ĠLady": 5979,
      "ĠHu": 5980,
      "worth": 5981,
      "Ġreform": 5982,
      "phia": 5983,
      "ocated": 5984,
      "Ġlif": 5985,
      "ĠAvenue": 5986,
      "Ġinh": 5987,
      "Ġsoldiers": 5988,
      "Ġ1956": 5989,
      "Ġconstitu": 5990,
      "Ġpaid": 5991,
      "Ġengineer": 5992,
      "size": 5993,
      "WP": 5994,
      "Ġrural": 5995,
      "zo": 5996,
      "ĠHay": 5997,
      "Ġcomposer": 5998,
      "asty": 5999,
      "ĠRome": 6000,
      "Ġadministration": 6001,
      "Ġarrived": 6002,
      "Ġfounder": 6003,
      "Ġ(+": 6004,
      "Ġupd": 6005,
      "Or": 6006,
      "ensis": 6007,
      "Ġconstructed": 6008,
      "My": 6009,
      "ĠSupreme": 6010,
      "ĠTransport": 6011,
      "Image": 6012,
      "ĠStand": 6013,
      "Ġcommonly": 6014,
      "upper": 6015,
      "omet": 6016,
      "ĠTen": 6017,
      "Ġblue": 6018,
      "Ġ1958": 6019,
      "Ġacting": 6020,
      "ĠAddition": 6021,
      "ĠMaster": 6022,
      "yal": 6023,
      "Ġsmaller": 6024,
      "ĠFurther": 6025,
      "Ġ1946": 6026,
      "Ġthr": 6027,
      "Ġhar": 6028,
      "Ġparliament": 6029,
      "Ġrepeated": 6030,
      "Ġmessage": 6031,
      "Ġresidents": 6032,
      "zh": 6033,
      "Ġproduce": 6034,
      "bourne": 6035,
      "Ġparish": 6036,
      "Ġspread": 6037,
      "Ġsilver": 6038,
      "onze": 6039,
      "aine": 6040,
      "alo": 6041,
      "Ġlargely": 6042,
      "Ġconducted": 6043,
      "ĠDer": 6044,
      "achusetts": 6045,
      "ÑĢ": 6046,
      "Ġinterested": 6047,
      "Ã¢": 6048,
      "Ġprotected": 6049,
      "ographic": 6050,
      "Ġdomain": 6051,
      "asy": 6052,
      "ĠNaz": 6053,
      "value": 6054,
      "Ġpublication": 6055,
      "Ġofficers": 6056,
      "Ġly": 6057,
      "ĠCommon": 6058,
      "elligence": 6059,
      "gar": 6060,
      "ĠIndones": 6061,
      "ĠSerb": 6062,
      "Ġ1959": 6063,
      "ĠRevolution": 6064,
      "itled": 6065,
      "Ġplanned": 6066,
      "Ġopport": 6067,
      "Ġrap": 6068,
      "Ġpermanent": 6069,
      "Ġconference": 6070,
      "Ġassigned": 6071,
      "ET": 6072,
      "Ġassociation": 6073,
      "duce": 6074,
      "Ġhttps": 6075,
      "Ġpositions": 6076,
      "Ġjournalist": 6077,
      "ĠHere": 6078,
      "Ġrad": 6079,
      "Ġtypically": 6080,
      "ĠSher": 6081,
      "Ġexternal": 6082,
      "onder": 6083,
      "Ġorganizations": 6084,
      "Ġleaders": 6085,
      "Ġtechnical": 6086,
      "iform": 6087,
      "resh": 6088,
      "irds": 6089,
      "ĠDam": 6090,
      "ĠKorean": 6091,
      "Ġeffects": 6092,
      "Ð½": 6093,
      "kh": 6094,
      "ĠWel": 6095,
      "heim": 6096,
      "Ġmarked": 6097,
      "ĠBishop": 6098,
      "ĠWilson": 6099,
      "Ġpet": 6100,
      "Ġaware": 6101,
      "States": 6102,
      "rence": 6103,
      "ĠCommunity": 6104,
      "ĠCategory": 6105,
      "Ġpoll": 6106,
      "oured": 6107,
      "Ġattribut": 6108,
      "adelphia": 6109,
      "ĠWalk": 6110,
      "ĠKal": 6111,
      "ipe": 6112,
      "Ġ::::::": 6113,
      "Ġautomatically": 6114,
      "uled": 6115,
      "inity": 6116,
      "ropical": 6117,
      "ĠLo": 6118,
      "Ġsections": 6119,
      "isa": 6120,
      "stitution": 6121,
      "Ġauthority": 6122,
      "Ġhouseholds": 6123,
      "Ġscholars": 6124,
      "aded": 6125,
      "entially": 6126,
      "ĠBol": 6127,
      "itely": 6128,
      "Ġserves": 6129,
      "rack": 6130,
      "ker": 6131,
      "ĠBackground": 6132,
      "ĠNations": 6133,
      "onents": 6134,
      "ĠGi": 6135,
      "cat": 6136,
      "Ġbranch": 6137,
      "Ġdisag": 6138,
      "Ġaffili": 6139,
      "ĠPower": 6140,
      "Ġneutral": 6141,
      "ĠWell": 6142,
      "Ã£o": 6143,
      "sex": 6144,
      "Ġven": 6145,
      "frac": 6146,
      "ashion": 6147,
      "ĠLiz": 6148,
      "iminal": 6149,
      "Ġterritory": 6150,
      "Â°": 6151,
      "Ġ44": 6152,
      "Te": 6153,
      "ĠTaylor": 6154,
      "ĠKhan": 6155,
      "ĠPremier": 6156,
      "Ġ500": 6157,
      "Ġweap": 6158,
      "Ġmunicipal": 6159,
      "Ġscene": 6160,
      "Ġcaptain": 6161,
      "Ġeasily": 6162,
      "Ġcompared": 6163,
      "Ġ1939": 6164,
      "Ġexamples": 6165,
      "ĠProt": 6166,
      "Ġstreet": 6167,
      "Ġcandidates": 6168,
      "former": 6169,
      "Ġincome": 6170,
      "Ġmax": 6171,
      "1999": 6172,
      "Ġ1957": 6173,
      "room": 6174,
      "oster": 6175,
      "ĠOxford": 6176,
      "IV": 6177,
      "126": 6178,
      "Ġposted": 6179,
      "Ġnob": 6180,
      "Ġgrew": 6181,
      "ĠCorporation": 6182,
      "Ġreject": 6183,
      "ðŁ": 6184,
      "ĠCaptain": 6185,
      "Ġscientific": 6186,
      "Ġphysical": 6187,
      "ĠToronto": 6188,
      "eech": 6189,
      "Ġimpl": 6190,
      "claim": 6191,
      "Ġpit": 6192,
      "aret": 6193,
      "2002": 6194,
      "ĠFree": 6195,
      "Please": 6196,
      "osen": 6197,
      "ĠArthur": 6198,
      "Ġgas": 6199,
      "Ġpiece": 6200,
      "300": 6201,
      "Ġproviding": 6202,
      "Ġencyclopedia": 6203,
      "cles": 6204,
      "Ġrespectively": 6205,
      "ulty": 6206,
      "ista": 6207,
      "Ġdiscussed": 6208,
      "Ġreports": 6209,
      "ĠBridge": 6210,
      "Ġid": 6211,
      "Link": 6212,
      "MC": 6213,
      "Ġcorrespond": 6214,
      "ĠNick": 6215,
      "Ġfast": 6216,
      "ĠCountry": 6217,
      "May": 6218,
      "Ġ1947": 6219,
      "restling": 6220,
      "ĠCas": 6221,
      "ĠKr": 6222,
      "itzer": 6223,
      "Ġdistinct": 6224,
      "ĠAD": 6225,
      "Ġauth": 6226,
      "Ġdivided": 6227,
      "Ġrecognized": 6228,
      "ĠSeason": 6229,
      "ĠProfessor": 6230,
      "andom": 6231,
      "ĠNetherlands": 6232,
      "Ġexists": 6233,
      "ĠHistoric": 6234,
      "RC": 6235,
      "Ġoccurred": 6236,
      "fully": 6237,
      "Ġ|}": 6238,
      "Ġmixed": 6239,
      "ĠMunicip": 6240,
      "svg": 6241,
      "ĠSanta": 6242,
      "Ġversions": 6243,
      "ĠCastle": 6244,
      "ĠGolden": 6245,
      "Ġcho": 6246,
      "ĠMinn": 6247,
      "Ne": 6248,
      "Ġexpansion": 6249,
      "works": 6250,
      "ĠMassachusetts": 6251,
      "Ġidentified": 6252,
      "iplom": 6253,
      "ĠClark": 6254,
      "ĠNote": 6255,
      "Ġorganized": 6256,
      "IA": 6257,
      "ĠStat": 6258,
      "Ġinfo": 6259,
      "lementary": 6260,
      "Ġleaves": 6261,
      "uclear": 6262,
      "Ġrecover": 6263,
      "Not": 6264,
      "Ġclar": 6265,
      "sey": 6266,
      "ĠFox": 6267,
      "ito": 6268,
      "ĠHan": 6269,
      "ĠTony": 6270,
      "Ġpresence": 6271,
      "ÃŃa": 6272,
      "cur": 6273,
      "ĠLive": 6274,
      "where": 6275,
      "Ġcapacity": 6276,
      "Ġtreatment": 6277,
      "ĠLog": 6278,
      "rank": 6279,
      "Ġaccur": 6280,
      "Ġprec": 6281,
      "Ġpassing": 6282,
      "Ġharm": 6283,
      "GB": 6284,
      "ĠIndust": 6285,
      "world": 6286,
      "bra": 6287,
      "enes": 6288,
      "pdf": 6289,
      "ĠIra": 6290,
      "Ġlibrary": 6291,
      "Ġstreng": 6292,
      "Ġsculpt": 6293,
      "Ġattend": 6294,
      "ennes": 6295,
      "Ġcerem": 6296,
      "Ġmissing": 6297,
      "ĠMP": 6298,
      "Ġordered": 6299,
      "Ġ56": 6300,
      "Ġmerging": 6301,
      "aro": 6302,
      "ntario": 6303,
      "ĠSever": 6304,
      "Ġnormal": 6305,
      "Am": 6306,
      "bro": 6307,
      "Ġpolitics": 6308,
      "ecies": 6309,
      "ĠUN": 6310,
      "Ġleadership": 6311,
      "iat": 6312,
      "ĠId": 6313,
      "Ġpal": 6314,
      "Ġgained": 6315,
      "urer": 6316,
      "JPG": 6317,
      "Ġcombined": 6318,
      "osophy": 6319,
      "orph": 6320,
      "Ġ1955": 6321,
      "Ġ64": 6322,
      "ĠPrim": 6323,
      "Ġoperating": 6324,
      "Ġflight": 6325,
      "Ġprep": 6326,
      "ĠWed": 6327,
      "non": 6328,
      "Ġpiano": 6329,
      "emeter": 6330,
      "Ġ(;": 6331,
      "Ġdeclared": 6332,
      "ĠLind": 6333,
      "Ġcommunities": 6334,
      "Ġattract": 6335,
      "Ġexactly": 6336,
      "Ġ*[": 6337,
      "Ġeveryone": 6338,
      "Ġ1952": 6339,
      "ĠMarsh": 6340,
      "Ġspeedy": 6341,
      "Ġcommittee": 6342,
      "Ġproposal": 6343,
      "ĠCzech": 6344,
      "Ġfigures": 6345,
      "ĠMic": 6346,
      "Ġpromotion": 6347,
      "Ġlab": 6348,
      "Ġalternative": 6349,
      "ĠBefore": 6350,
      "Ġreflect": 6351,
      "ĠGreg": 6352,
      "{{#": 6353,
      "RA": 6354,
      "ĠJay": 6355,
      "ratio": 6356,
      "Ġ41": 6357,
      "ĠCa": 6358,
      "ĠUkraine": 6359,
      "Ġjoint": 6360,
      "olis": 6361,
      "Ġmountain": 6362,
      "Ġtermin": 6363,
      "Ġworkers": 6364,
      "pson": 6365,
      "Ġincident": 6366,
      "Ġgrowth": 6367,
      "ĠAlf": 6368,
      "iser": 6369,
      "Ġyourself": 6370,
      "Ġstream": 6371,
      "ancing": 6372,
      "2023": 6373,
      "Ġphoto": 6374,
      "actionhistory": 6375,
      "Ġenter": 6376,
      "ervative": 6377,
      "Ġcharge": 6378,
      "rate": 6379,
      "ption": 6380,
      "Ġrationale": 6381,
      "Ġdestroyed": 6382,
      "Ġmetal": 6383,
      "Ġcoordin": 6384,
      "ĠDar": 6385,
      "eta": 6386,
      "ĠJunior": 6387,
      "apore": 6388,
      "ĠBudd": 6389,
      "Ġaim": 6390,
      "eh": 6391,
      "ãĥ": 6392,
      "ictional": 6393,
      "PS": 6394,
      "agraph": 6395,
      "listed": 6396,
      "ĠDavis": 6397,
      "miss": 6398,
      "Jan": 6399,
      "ydro": 6400,
      "EL": 6401,
      "ĠBir": 6402,
      "Ġ:#": 6403,
      "Ġgovernor": 6404,
      "ropolitan": 6405,
      "ĠColor": 6406,
      "Ġdamage": 6407,
      "Ġstore": 6408,
      "Ġopposed": 6409,
      "'.": 6410,
      "yard": 6411,
      "Ġinclusion": 6412,
      "Ġhope": 6413,
      "Ġseats": 6414,
      "Ġ?": 6415,
      "oti": 6416,
      "unter": 6417,
      "Ġ1954": 6418,
      "ĠLike": 6419,
      "ĠBaron": 6420,
      "ĠColon": 6421,
      "antly": 6422,
      "ĠNik": 6423,
      "Ġapplied": 6424,
      "Ñģ": 6425,
      "urname": 6426,
      "ĠWorks": 6427,
      "ĠEarl": 6428,
      "acement": 6429,
      "iang": 6430,
      "ĠAbd": 6431,
      "Ġprogress": 6432,
      "Ġhockey": 6433,
      "url": 6434,
      "wing": 6435,
      "Ġfixed": 6436,
      "ĠPhiladelphia": 6437,
      "ĠBall": 6438,
      "ructure": 6439,
      "Ġdial": 6440,
      "ĠWeb": 6441,
      "Ġpeace": 6442,
      "etic": 6443,
      "ĠMarg": 6444,
      "Ġchalleng": 6445,
      "akers": 6446,
      "aza": 6447,
      "Ġengineering": 6448,
      "ĠAdam": 6449,
      "Ġunderstanding": 6450,
      "Ġreceive": 6451,
      "ĠRoss": 6452,
      "Ġways": 6453,
      "ÂĲ": 6454,
      "rov": 6455,
      "149": 6456,
      "What": 6457,
      "Ġjudge": 6458,
      "foot": 6459,
      "ĠSlov": 6460,
      "Ġlearn": 6461,
      "UN": 6462,
      "itness": 6463,
      "Links": 6464,
      "Ġcitizens": 6465,
      "Ġ1949": 6466,
      "Ġ54": 6467,
      "ĠQueens": 6468,
      "Ġmill": 6469,
      "ĠAlbum": 6470,
      "Can": 6471,
      "actions": 6472,
      "ĠNorw": 6473,
      "156": 6474,
      "Ġdistribution": 6475,
      ")&": 6476,
      "Ġresolution": 6477,
      "Ġpainting": 6478,
      "ĠAtlantic": 6479,
      "Ġdefined": 6480,
      "Ġhits": 6481,
      "Ġmotor": 6482,
      "ĠâĢł": 6483,
      "Ġunique": 6484,
      "ifications": 6485,
      "Ġ1953": 6486,
      "Ġ42": 6487,
      "Ġgraph": 6488,
      "zen": 6489,
      "ĠMas": 6490,
      "awn": 6491,
      "Ġcompar": 6492,
      "ĠEach": 6493,
      "tension": 6494,
      "pur": 6495,
      "ĠRon": 6496,
      "]&": 6497,
      "died": 6498,
      "note": 6499,
      "Ġopposition": 6500,
      "Ġadopted": 6501,
      "Ġcontinues": 6502,
      "ĠMun": 6503,
      "ĠHal": 6504,
      "129": 6505,
      "ĠHighway": 6506,
      "Ġupper": 6507,
      "Ġsexual": 6508,
      "lines": 6509,
      "Ġbrand": 6510,
      "ĠShort": 6511,
      "Ġfelt": 6512,
      "Ġfloor": 6513,
      "Ġbeat": 6514,
      "ĠDiv": 6515,
      "Ġhor": 6516,
      "Ġlimit": 6517,
      "ĠForest": 6518,
      "stream": 6519,
      "ĠThen": 6520,
      "ĠOnly": 6521,
      "Ġdisapp": 6522,
      "VID": 6523,
      "Ġcaptured": 6524,
      "ĠMember": 6525,
      "vot": 6526,
      "oli": 6527,
      "Ġpun": 6528,
      "lined": 6529,
      "Ġnav": 6530,
      "Ġeverything": 6531,
      "ĠBon": 6532,
      "lyn": 6533,
      "ĠMedical": 6534,
      "176": 6535,
      "mes": 6536,
      "ĠTal": 6537,
      "Ġhour": 6538,
      "evin": 6539,
      "Ġagric": 6540,
      "ĠSus": 6541,
      "Ġattempts": 6542,
      "Ġcampus": 6543,
      "life": 6544,
      "phas": 6545,
      "onent": 6546,
      "ĠBrad": 6547,
      "Ġrecon": 6548,
      "esota": 6549,
      "Ġliber": 6550,
      "Ġstraight": 6551,
      "Ġasser": 6552,
      "Ġraces": 6553,
      "Ġ}": 6554,
      "Ġmathemat": 6555,
      "rec": 6556,
      "ĠSemi": 6557,
      "ĠOntario": 6558,
      "ĠImage": 6559,
      "Ġcondition": 6560,
      "ĠDesign": 6561,
      "owa": 6562,
      "ĠRegion": 6563,
      "Ġarts": 6564,
      "ricts": 6565,
      "ĠArticles": 6566,
      "VD": 6567,
      "Ġlosing": 6568,
      "Ġcomedy": 6569,
      "Ġreverted": 6570,
      "agan": 6571,
      "vo": 6572,
      "wong": 6573,
      "ui": 6574,
      "rm": 6575,
      "ĠCam": 6576,
      "196": 6577,
      "ĠSweden": 6578,
      "Ġabandon": 6579,
      "Ġconvers": 6580,
      "Ġlat": 6581,
      "Ġmeasure": 6582,
      "illing": 6583,
      "Ġperformances": 6584,
      "prof": 6585,
      "Ġbasic": 6586,
      "Ġblood": 6587,
      "Ġpush": 6588,
      "Ġspirit": 6589,
      "anz": 6590,
      "206": 6591,
      "Ġexistence": 6592,
      "ĠSon": 6593,
      "ĠFer": 6594,
      "400": 6595,
      "Ġmoment": 6596,
      "post": 6597,
      "ĠCommand": 6598,
      "ĠPier": 6599,
      "Ġresulted": 6600,
      "orney": 6601,
      "ĠPlot": 6602,
      "Ġwa": 6603,
      "Ġsolid": 6604,
      "Ġtemplates": 6605,
      "Ġlogo": 6606,
      "136": 6607,
      "Ġfalse": 6608,
      "ĠBecause": 6609,
      "ici": 6610,
      "ĠHard": 6611,
      "Ġconnection": 6612,
      "Ġconsum": 6613,
      "ĠBeach": 6614,
      "Ġdisrupt": 6615,
      "Ġ1951": 6616,
      "Ġcontemporary": 6617,
      "Ġtree": 6618,
      "Ġtranslation": 6619,
      "illery": 6620,
      "Ġdistance": 6621,
      "Ġdifference": 6622,
      "ĠNetwork": 6623,
      "Ġdance": 6624,
      "cow": 6625,
      "Ġfacilities": 6626,
      "Ġprote": 6627,
      "Ġnet": 6628,
      "ĠBah": 6629,
      "ĠHor": 6630,
      "iner": 6631,
      "Ġexpand": 6632,
      "cal": 6633,
      "ĠMountain": 6634,
      "Ġstrugg": 6635,
      "ĠCommun": 6636,
      "erick": 6637,
      "blog": 6638,
      "Ġcontroll": 6639,
      "Ġpressure": 6640,
      "La": 6641,
      "))": 6642,
      "incial": 6643,
      "Ġsupporting": 6644,
      "ĠTownship": 6645,
      "Ġcab": 6646,
      "Ġextrem": 6647,
      "leep": 6648,
      "agh": 6649,
      "ĠLeon": 6650,
      "Ġestate": 6651,
      "ĠSav": 6652,
      "ĠSound": 6653,
      "pha": 6654,
      "Ġdisp": 6655,
      "hedral": 6656,
      "Ġmiles": 6657,
      "chi": 6658,
      "Ġoffers": 6659,
      "otal": 6660,
      "166": 6661,
      "0000000": 6662,
      "Ġyards": 6663,
      "Ġ75": 6664,
      "Ġurban": 6665,
      "ĠCommons": 6666,
      "ĠCab": 6667,
      "igation": 6668,
      "ĠMemorial": 6669,
      "odies": 6670,
      "Ġfinish": 6671,
      "Ġsevent": 6672,
      "Ġmodels": 6673,
      "Ġtend": 6674,
      "Ġnewly": 6675,
      "Ġ(),": 6676,
      "Ġequipment": 6677,
      "Ġboy": 6678,
      "Ġaccident": 6679,
      "NOT": 6680,
      "Mer": 6681,
      "Ġaccomp": 6682,
      "Ġresulting": 6683,
      "1997": 6684,
      "Ġathlet": 6685,
      "Ġwing": 6686,
      "oly": 6687,
      "{\\": 6688,
      "Ã¼r": 6689,
      "Ġgranted": 6690,
      "ĠAst": 6691,
      "ĠTai": 6692,
      "Ġallows": 6693,
      "186": 6694,
      "War": 6695,
      "icy": 6696,
      "Ġmayor": 6697,
      "2024": 6698,
      "tainment": 6699,
      "199": 6700,
      "Ġsourced": 6701,
      "Star": 6702,
      "cha": 6703,
      "eaking": 6704,
      "Ġpremier": 6705,
      "ĠPOV": 6706,
      "ĠRound": 6707,
      "ĠBat": 6708,
      "Ġredirects": 6709,
      "ruce": 6710,
      "Ġwild": 6711,
      "rell": 6712,
      "Ġsand": 6713,
      "rix": 6714,
      "Ġunable": 6715,
      "Ġconnected": 6716,
      "Ġparagraph": 6717,
      "Selected": 6718,
      "Ġenfor": 6719,
      "Ġcir": 6720,
      "Ġwasn": 6721,
      "Ġchairman": 6722,
      "emetery": 6723,
      "146": 6724,
      "Ġcoal": 6725,
      "157": 6726,
      "Ġsales": 6727,
      "going": 6728,
      "Ġsecret": 6729,
      "ĠOt": 6730,
      "ĠResults": 6731,
      "ĠSem": 6732,
      "Ġranked": 6733,
      "Ġstone": 6734,
      "147": 6735,
      "wikimedia": 6736,
      "othing": 6737,
      "CD": 6738,
      "viation": 6739,
      "Ġparam": 6740,
      "De": 6741,
      "209": 6742,
      "Ġadapt": 6743,
      "lik": 6744,
      "250": 6745,
      "onsin": 6746,
      "inton": 6747,
      "aska": 6748,
      "128": 6749,
      "Ġenem": 6750,
      "ĠAli": 6751,
      "idi": 6752,
      "OL": 6753,
      "ourced": 6754,
      "ordon": 6755,
      "ĠEvery": 6756,
      "Ġdefinition": 6757,
      "anger": 6758,
      "Ġearth": 6759,
      "Ġslow": 6760,
      "ĠHur": 6761,
      "There": 6762,
      "aron": 6763,
      "Ġretire": 6764,
      "Ġcarri": 6765,
      "Oppose": 6766,
      "oub": 6767,
      "127": 6768,
      "isconsin": 6769,
      "Ġunknown": 6770,
      "Ġlaunch": 6771,
      "ikh": 6772,
      "ĠSciences": 6773,
      "inder": 6774,
      "tes": 6775,
      "Ġsuffered": 6776,
      "Ġappre": 6777,
      "Ġimportance": 6778,
      "ordan": 6779,
      "Ġmusician": 6780,
      "ĠLegisl": 6781,
      "Ġhistorian": 6782,
      "ĠInst": 6783,
      "notes": 6784,
      "tywong": 6785,
      "Nov": 6786,
      "Ġrisk": 6787,
      "ĠCle": 6788,
      "ĠPolitical": 6789,
      "Ġwins": 6790,
      "Ġnone": 6791,
      "Ġshowing": 6792,
      "Ġpurchased": 6793,
      "Mon": 6794,
      "Ġdescription": 6795,
      "ĠDream": 6796,
      "Ġsides": 6797,
      "Ġwikis": 6798,
      "joy": 6799,
      "enna": 6800,
      "Å«": 6801,
      "159": 6802,
      "Ġreduced": 6803,
      "ieces": 6804,
      "Ġphr": 6805,
      "Ġtask": 6806,
      "ĠMinnesota": 6807,
      "ĠGeography": 6808,
      "ĠRa": 6809,
      "ĠCurrent": 6810,
      "played": 6811,
      "ĠLewis": 6812,
      "Ġexplain": 6813,
      "1996": 6814,
      "Ġestimated": 6815,
      "ĠEsp": 6816,
      "Ġcovers": 6817,
      "ĠÄ": 6818,
      "Ã¥": 6819,
      "Ġallowing": 6820,
      "Ġyes": 6821,
      "207": 6822,
      "asters": 6823,
      "aints": 6824,
      "Ġimproved": 6825,
      "ienced": 6826,
      "ĠJer": 6827,
      "Ġsquare": 6828,
      "eless": 6829,
      "Ġsupposed": 6830,
      "ĠEth": 6831,
      "Ġsatisf": 6832,
      "Ġscoring": 6833,
      "William": 6834,
      "SC": 6835,
      "ĠBooks": 6836,
      "ploy": 6837,
      "ĠLow": 6838,
      "~~": 6839,
      "ĠIraq": 6840,
      "ni": 6841,
      "omon": 6842,
      "lad": 6843,
      "ĠEP": 6844,
      "ĠGree": 6845,
      "ĠCOVID": 6846,
      "ĠDu": 6847,
      "Ġcommander": 6848,
      "Ġwarning": 6849,
      "Ġstarring": 6850,
      "Preceding": 6851,
      "Ġheard": 6852,
      "Ġ48": 6853,
      "outheast": 6854,
      "Ġapply": 6855,
      "itter": 6856,
      "208": 6857,
      "Ġpainter": 6858,
      "Ġcrime": 6859,
      "Ġ1936": 6860,
      "Eng": 6861,
      "Ġnarrow": 6862,
      "Ġpublications": 6863,
      "Ġheav": 6864,
      "Ġgreater": 6865,
      "Ġfestival": 6866,
      "Ġindustrial": 6867,
      "ĠFederation": 6868,
      "Ġ1938": 6869,
      "ĠTri": 6870,
      "Ġhabit": 6871,
      "offs": 6872,
      "Ġattempted": 6873,
      "ologies": 6874,
      "bf": 6875,
      "agle": 6876,
      "sch": 6877,
      "Ġloan": 6878,
      "Ġbottom": 6879,
      "caption": 6880,
      "aph": 6881,
      "ĠLt": 6882,
      "1990": 6883,
      "Ġtells": 6884,
      ")\"": 6885,
      "rak": 6886,
      "ĠDor": 6887,
      "alty": 6888,
      "rait": 6889,
      "Ġhyp": 6890,
      "ĠPhilippines": 6891,
      "ĠSimon": 6892,
      "Ġexperiment": 6893,
      "also": 6894,
      "Ġdates": 6895,
      "1998": 6896,
      "Ġlies": 6897,
      "ĠStudies": 6898,
      "exp": 6899,
      "Ġproceed": 6900,
      "David": 6901,
      "ĠGab": 6902,
      "Ġrelatively": 6903,
      "Ġspons": 6904,
      "Ġ66": 6905,
      "Ġresources": 6906,
      "ĠAnthony": 6907,
      "306": 6908,
      "Ġfiction": 6909,
      "ĠBor": 6910,
      "Ðº": 6911,
      "Ġdoctor": 6912,
      "Ġsurrounding": 6913,
      "iques": 6914,
      "ruit": 6915,
      "Ab": 6916,
      "ĠPass": 6917,
      "efin": 6918,
      "run": 6919,
      "ĠProduction": 6920,
      "Ġmaterials": 6921,
      "ĠKat": 6922,
      "ĠVi": 6923,
      "Ġregions": 6924,
      "Ġbegins": 6925,
      "Ġdisease": 6926,
      "lections": 6927,
      "ĠTest": 6928,
      "Ġfrequently": 6929,
      "Ġ1918": 6930,
      "Ġresident": 6931,
      "Ġbul": 6932,
      "SR": 6933,
      "Ġpack": 6934,
      "Ġlabor": 6935,
      "lers": 6936,
      "Ġhy": 6937,
      "Template": 6938,
      "finals": 6939,
      "Ġformerly": 6940,
      "ĠPhilip": 6941,
      "ĠExpl": 6942,
      "ĠStats": 6943,
      "Ġclosure": 6944,
      "pop": 6945,
      "Ġhappened": 6946,
      "olas": 6947,
      "ĠSingapore": 6948,
      "night": 6949,
      "lywood": 6950,
      "Ġsurpr": 6951,
      "ĠBrother": 6952,
      "Ġconcent": 6953,
      "incess": 6954,
      "ĠWhy": 6955,
      "ĠMexican": 6956,
      "IP": 6957,
      "ateur": 6958,
      "ĠPalest": 6959,
      "Ġinjury": 6960,
      "regon": 6961,
      "Ġapproved": 6962,
      "Ġnarr": 6963,
      "bell": 6964,
      "rainian": 6965,
      "Ġslightly": 6966,
      "wen": 6967,
      "Ġdrums": 6968,
      "Ġalleged": 6969,
      "LA": 6970,
      "Ġofficials": 6971,
      "Ġassess": 6972,
      "nottywong": 6973,
      "Ġce": 6974,
      "Ġportray": 6975,
      "ĠSpring": 6976,
      "uri": 6977,
      "INE": 6978,
      "Ġcars": 6979,
      "Ġwall": 6980,
      "ivalent": 6981,
      "217": 6982,
      "Ġidentity": 6983,
      "aver": 6984,
      "sear": 6985,
      "Ġprotest": 6986,
      "omy": 6987,
      "snottywong": 6988,
      "ĠGil": 6989,
      "ĠBarb": 6990,
      "Ġchosen": 6991,
      "ĠNFL": 6992,
      "ardo": 6993,
      "Ġtools": 6994,
      "Ġmyself": 6995,
      "rim": 6996,
      "Ġfell": 6997,
      "Ġple": 6998,
      "226": 6999,
      "Ġroyal": 7000,
      "ĠMalays": 7001,
      "Ġaren": 7002,
      "Ġreplace": 7003,
      "ĠFle": 7004,
      "Ġbegin": 7005,
      "agu": 7006,
      "iller": 7007,
      "ĠHart": 7008,
      "Ġindicate": 7009,
      "Contributions": 7010,
      "Ġelimin": 7011,
      "ĠImp": 7012,
      "Ġrugby": 7013,
      "Ġadvanced": 7014,
      "à¦": 7015,
      "aren": 7016,
      "Ġmaybe": 7017,
      "Ġdocumentary": 7018,
      "edition": 7019,
      "Ġpresidential": 7020,
      "Ġvisit": 7021,
      "outs": 7022,
      "Ġovers": 7023,
      "Ġpasses": 7024,
      "ippi": 7025,
      "Ġheight": 7026,
      "Ġrefers": 7027,
      "189": 7028,
      "Ġdrive": 7029,
      "active": 7030,
      "Ġshowed": 7031,
      "Ġil": 7032,
      "ĠDown": 7033,
      "ĠBus": 7034,
      "Ġobtained": 7035,
      "Ġhousing": 7036,
      "ĠBos": 7037,
      "Ġclimate": 7038,
      "di": 7039,
      "Ġauthorities": 7040,
      "ĠCall": 7041,
      "ache": 7042,
      "die": 7043,
      "Ġtraffic": 7044,
      "Ġec": 7045,
      "137": 7046,
      "Ġmentions": 7047,
      "ĠLam": 7048,
      "ĠIsraeli": 7049,
      "ĠAnderson": 7050,
      "ĠBrook": 7051,
      "ĠEntertainment": 7052,
      "ania": 7053,
      "omot": 7054,
      "term": 7055,
      "Ġtrusted": 7056,
      "Ġvolunte": 7057,
      "while": 7058,
      "wick": 7059,
      "ikiped": 7060,
      "Ġfocused": 7061,
      "aling": 7062,
      "Ġsynt": 7063,
      "ried": 7064,
      "197": 7065,
      "198": 7066,
      "ĠNY": 7067,
      "egian": 7068,
      "Ġwouldn": 7069,
      "ĠAndy": 7070,
      "ĠOcean": 7071,
      "Ġcritics": 7072,
      "ĠRad": 7073,
      "Ġarms": 7074,
      "Ġconcert": 7075,
      "Ġsurname": 7076,
      "Ġvess": 7077,
      "Ġprogramming": 7078,
      "Ġcopies": 7079,
      "Ġoption": 7080,
      "ĠBrian": 7081,
      "Ġfans": 7082,
      "Ġsets": 7083,
      "Ġyounger": 7084,
      "iley": 7085,
      "Ġwel": 7086,
      "ĠArmen": 7087,
      "ĠEnt": 7088,
      "Ġcontributed": 7089,
      "Ġexpect": 7090,
      "ambiguation": 7091,
      "Ġinspired": 7092,
      "ĠWisconsin": 7093,
      "Ġsoc": 7094,
      "Ġsixth": 7095,
      "Ġ49": 7096,
      "oen": 7097,
      "ĠVis": 7098,
      "Ġperfect": 7099,
      "Ġ1937": 7100,
      "Ġscript": 7101,
      "rizona": 7102,
      "ĠAbb": 7103,
      "Ġformation": 7104,
      "Ġadministrator": 7105,
      "Ġcert": 7106,
      "Ġcriticism": 7107,
      "Ġthanks": 7108,
      "Ġarrested": 7109,
      "ĠHarry": 7110,
      "ĠMiller": 7111,
      "BE": 7112,
      "167": 7113,
      "Ġremember": 7114,
      "Ġdetail": 7115,
      "ĠAmong": 7116,
      "Car": 7117,
      "enny": 7118,
      "ĠEmperor": 7119,
      "150": 7120,
      "Ġideas": 7121,
      "ãģ": 7122,
      "Ġcustom": 7123,
      "iva": 7124,
      "ryst": 7125,
      "Ġoldest": 7126,
      "187": 7127,
      "aired": 7128,
      "ĠChristmas": 7129,
      "ental": 7130,
      "ĠBangl": 7131,
      "Ġappeal": 7132,
      "Ġcaught": 7133,
      "Ġmarg": 7134,
      "Ġinstrument": 7135,
      "ĠJacob": 7136,
      "ruption": 7137,
      "eral": 7138,
      "Ġburied": 7139,
      "Ġinteresting": 7140,
      "\").": 7141,
      "urches": 7142,
      "Ġadvoc": 7143,
      "Ġvirt": 7144,
      "Ġrestored": 7145,
      "ĠPropose": 7146,
      "ecounter": 7147,
      "votecounter": 7148,
      "Ġdesignated": 7149,
      "ĠOak": 7150,
      "erc": 7151,
      "Ġqualified": 7152,
      "Ġtaught": 7153,
      "server": 7154,
      "Ġsole": 7155,
      "ĠCambridge": 7156,
      "ĠWolf": 7157,
      "ĠHans": 7158,
      "Ġemphas": 7159,
      "Ġhall": 7160,
      "177": 7161,
      "Sm": 7162,
      "Ġnegative": 7163,
      "oes": 7164,
      "Ġnominations": 7165,
      "vements": 7166,
      "ĠBLP": 7167,
      "Ġachieved": 7168,
      "IL": 7169,
      "Ġvillages": 7170,
      "237": 7171,
      "Ġlearning": 7172,
      "ĠForeign": 7173,
      "lah": 7174,
      "star": 7175,
      "Ġoccasion": 7176,
      "ĠUt": 7177,
      "gor": 7178,
      "That": 7179,
      "Äĥ": 7180,
      "Ġvocal": 7181,
      "130": 7182,
      "Ġextensive": 7183,
      "Ġtheme": 7184,
      "ĠPitt": 7185,
      "Ġshared": 7186,
      "uther": 7187,
      "urance": 7188,
      "Be": 7189,
      "western": 7190,
      "Ġaccused": 7191,
      "230": 7192,
      "ĠManagement": 7193,
      "Ġadmins": 7194,
      "soft": 7195,
      "ĠNCAA": 7196,
      "seud": 7197,
      "139": 7198,
      "ĠEric": 7199,
      "ĠThrough": 7200,
      "Ġfighting": 7201,
      "Ġplants": 7202,
      "Ġresear": 7203,
      "ocese": 7204,
      "235": 7205,
      "Ġportion": 7206,
      "ĠTy": 7207,
      "ĠSix": 7208,
      "ĠAle": 7209,
      "Ġgrowing": 7210,
      "chers": 7211,
      "rum": 7212,
      "Ġexpress": 7213,
      "iti": 7214,
      "ĠArea": 7215,
      "Ġchance": 7216,
      "Ġcitations": 7217,
      "icians": 7218,
      "sec": 7219,
      "ĠEngineering": 7220,
      "ĠWho": 7221,
      "ĠUl": 7222,
      "Ġholds": 7223,
      "Ġcolspan": 7224,
      "Ġethnic": 7225,
      "content": 7226,
      "px": 7227,
      "Ġrecognition": 7228,
      "anges": 7229,
      "ĠKansas": 7230,
      "Ġ(,": 7231,
      "Ġstating": 7232,
      "igg": 7233,
      "osis": 7234,
      "uba": 7235,
      "Ġeducational": 7236,
      "Ġappreci": 7237,
      "olved": 7238,
      "Ġexpressed": 7239,
      "ĠNap": 7240,
      "uese": 7241,
      "Ġdiplom": 7242,
      "gment": 7243,
      "ooth": 7244,
      "Ġultimately": 7245,
      "ĠLiter": 7246,
      "Ġbillion": 7247,
      "ĠBillboard": 7248,
      ":{}|": 7249,
      "Ġdistingu": 7250,
      "Ġrestaur": 7251,
      "Rel": 7252,
      "Ġexchange": 7253,
      "ĠThird": 7254,
      "uv": 7255,
      "Ġ57": 7256,
      "Ġstrike": 7257,
      "Ġsubmission": 7258,
      "ĠDoc": 7259,
      "ĠRose": 7260,
      "iants": 7261,
      "Ġproced": 7262,
      "protection": 7263,
      "ĠDomin": 7264,
      "ĠHoly": 7265,
      "Ġnotify": 7266,
      "oa": 7267,
      "ĠMoscow": 7268,
      "Ġadvance": 7269,
      "ĠModern": 7270,
      "ĠFront": 7271,
      "ques": 7272,
      "Ġvice": 7273,
      "ulate": 7274,
      "195": 7275,
      "ĠDue": 7276,
      "issippi": 7277,
      "ĠInfantry": 7278,
      "ĠMelbourne": 7279,
      "ĠWat": 7280,
      "Ġinvestigation": 7281,
      "Ġcalling": 7282,
      "Ġmachine": 7283,
      "{}}": 7284,
      "ĠIV": 7285,
      "space": 7286,
      "ibb": 7287,
      "Ġsolution": 7288,
      "idden": 7289,
      "169": 7290,
      "Ġformal": 7291,
      "Ġcontribution": 7292,
      "using": 7293,
      "Ġexpert": 7294,
      "ules": 7295,
      "Ġbronze": 7296,
      "mont": 7297,
      "ĠAlan": 7298,
      "Ġaired": 7299,
      "Ġvisual": 7300,
      "Ġscope": 7301,
      "ĠKam": 7302,
      "ĠHou": 7303,
      "log": 7304,
      "SA": 7305,
      "rees": 7306,
      "Ġbow": 7307,
      "ãĤ": 7308,
      "Ġreporting": 7309,
      "Ġinstance": 7310,
      "Ġregistered": 7311,
      "start": 7312,
      "Ġ46": 7313,
      "Ġhands": 7314,
      "ĠRedirect": 7315,
      "EX": 7316,
      "Ġpublisher": 7317,
      "Ġpurposes": 7318,
      "ĠSquadron": 7319,
      "ĠGro": 7320,
      "Ġcricket": 7321,
      "ĠBeng": 7322,
      "coming": 7323,
      "....": 7324,
      "En": 7325,
      "ĠReception": 7326,
      "story": 7327,
      "etime": 7328,
      "Ġchoice": 7329,
      "Ġyellow": 7330,
      "Ġrating": 7331,
      "IM": 7332,
      "ĠTs": 7333,
      "Ġfan": 7334,
      "ĠColorado": 7335,
      "ĠTurkish": 7336,
      "inth": 7337,
      "Ġviolation": 7338,
      "mat": 7339,
      "weet": 7340,
      "ĠRun": 7341,
      "boy": 7342,
      "RR": 7343,
      "Ġstructures": 7344,
      "Ġstuff": 7345,
      "179": 7346,
      "ĠEs": 7347,
      "ĠAuthor": 7348,
      "ĠIndiana": 7349,
      "ĠWalter": 7350,
      "ĠRey": 7351,
      "Ġcycl": 7352,
      "Ġcharts": 7353,
      "aser": 7354,
      "arks": 7355,
      "ĠDom": 7356,
      "earing": 7357,
      "Ġtowns": 7358,
      "Ġmemory": 7359,
      "Ġheadquarters": 7360,
      "148": 7361,
      "Ġstatements": 7362,
      "Ġreturning": 7363,
      "Ġreligion": 7364,
      "Ġsuppl": 7365,
      "ennessee": 7366,
      "175": 7367,
      "At": 7368,
      "ĠAffairs": 7369,
      "Ġmethods": 7370,
      "zi": 7371,
      "238": 7372,
      "Ġmut": 7373,
      "ghan": 7374,
      "Ġsafety": 7375,
      "Ġpair": 7376,
      "Ġsubdivision": 7377,
      "ĠTurkey": 7378,
      "estyle": 7379,
      "Ġlocations": 7380,
      "ĠPubl": 7381,
      "Ġahead": 7382,
      "2025": 7383,
      "Ã©s": 7384,
      "247": 7385,
      "Ġsucceeded": 7386,
      "ĠRegional": 7387,
      "know": 7388,
      "eo": 7389,
      "160": 7390,
      "Ġlicens": 7391,
      "ĠRoll": 7392,
      "risis": 7393,
      "ĠChampions": 7394,
      "ECT": 7395,
      "ĠZh": 7396,
      "ega": 7397,
      "uccess": 7398,
      "cre": 7399,
      "mod": 7400,
      "Ġends": 7401,
      "typ": 7402,
      "ĠNa": 7403,
      "coln": 7404,
      "irus": 7405,
      "Ġmicro": 7406,
      "ĠBuilding": 7407,
      "328": 7408,
      "EP": 7409,
      "ĠPot": 7410,
      "Ġtwenty": 7411,
      "Ġreaders": 7412,
      "olo": 7413,
      "ĠIl": 7414,
      "Ġcancer": 7415,
      "orro": 7416,
      "ĠToday": 7417,
      "Ġarchitecture": 7418,
      "hop": 7419,
      "Ġdoubt": 7420,
      "Ġ:::::::::": 7421,
      "Ġdaily": 7422,
      "ĠFord": 7423,
      "1995": 7424,
      "Ġuncle": 7425,
      "Ġ1935": 7426,
      "Ġaudience": 7427,
      "Ġspring": 7428,
      "that": 7429,
      "Ã«": 7430,
      "ĠSource": 7431,
      "Ġteaching": 7432,
      "rin": 7433,
      "hens": 7434,
      "section": 7435,
      "205": 7436,
      "178": 7437,
      "Ġapparently": 7438,
      "Ġ1919": 7439,
      "def": 7440,
      "1000": 7441,
      "Ġeffective": 7442,
      "Ġrequested": 7443,
      "car": 7444,
      "Ġwinners": 7445,
      "ĠTurn": 7446,
      "ĠBan": 7447,
      "ymn": 7448,
      "ĠBarn": 7449,
      "ĠHamp": 7450,
      "uma": 7451,
      "ĠReal": 7452,
      "Ġeasy": 7453,
      "ĠRO": 7454,
      "uj": 7455,
      "Ġreceiving": 7456,
      "Ġrecre": 7457,
      "Ġracing": 7458,
      "ĠAustria": 7459,
      "Ġrid": 7460,
      "Ġpromote": 7461,
      "Ġagent": 7462,
      "hetic": 7463,
      "ĠArizona": 7464,
      "ĠPhys": 7465,
      "ĠSri": 7466,
      "ĠAud": 7467,
      "Ġsubs": 7468,
      "ĠServices": 7469,
      "Ġtheatre": 7470,
      "hal": 7471,
      "imension": 7472,
      "Ġinstitutions": 7473,
      "ĠDark": 7474,
      "ĠKey": 7475,
      "Ġrepresentative": 7476,
      "ĠTrump": 7477,
      "Ġflow": 7478,
      "Ġsetting": 7479,
      "eating": 7480,
      "ĠNich": 7481,
      "ĠWinter": 7482,
      "asa": 7483,
      "unction": 7484,
      "Ġfish": 7485,
      "Ġbill": 7486,
      "Ġbanned": 7487,
      "South": 7488,
      "ĠSeveral": 7489,
      "ante": 7490,
      "Ġexplan": 7491,
      "lov": 7492,
      "Ġconsistent": 7493,
      "Ġ1917": 7494,
      "ĠJews": 7495,
      "236": 7496,
      "ĠBart": 7497,
      "Ġending": 7498,
      "Ġairport": 7499,
      "Ġentertain": 7500,
      "Ġ47": 7501,
      "Ġ1914": 7502,
      "Ġflood": 7503,
      "ĠHand": 7504,
      "ĠSenior": 7505,
      "Ġkilling": 7506,
      "Ġdetermined": 7507,
      "Ġasking": 7508,
      "ĠBetween": 7509,
      "Ġitems": 7510,
      "ĠStock": 7511,
      "Ġlawyer": 7512,
      "don": 7513,
      "Ġtrains": 7514,
      "ĠFellow": 7515,
      "Ġextension": 7516,
      "language": 7517,
      "quests": 7518,
      "Ġrepresenting": 7519,
      "Ġ300": 7520,
      "Ġprincipal": 7521,
      "itche": 7522,
      "pool": 7523,
      "Ġfacility": 7524,
      "Ġguest": 7525,
      "ĠSunday": 7526,
      "atever": 7527,
      "aux": 7528,
      "ĠTemple": 7529,
      "ĠNob": 7530,
      "158": 7531,
      "Ġexc": 7532,
      "ĠSingh": 7533,
      "ĠOregon": 7534,
      "zer": 7535,
      "Ġprotect": 7536,
      "406": 7537,
      "Ġpermission": 7538,
      "ĠAllen": 7539,
      "hol": 7540,
      "229": 7541,
      "ĠSign": 7542,
      "ĠSpider": 7543,
      "ĠPas": 7544,
      "ĠTrust": 7545,
      "246": 7546,
      "188": 7547,
      "ĠLast": 7548,
      "iversary": 7549,
      "Ġ1933": 7550,
      "Ġfields": 7551,
      "496": 7552,
      "ĠWhe": 7553,
      "ĠSel": 7554,
      ";Â·&": 7555,
      "Per": 7556,
      "stan": 7557,
      "Ġ1900": 7558,
      "ĠVietnam": 7559,
      "ortheast": 7560,
      "ĠCape": 7561,
      "Ġdisruptive": 7562,
      "rome": 7563,
      "Ġtemple": 7564,
      "ĠPlan": 7565,
      "ĠDescription": 7566,
      "olished": 7567,
      "Ġrapid": 7568,
      "245": 7569,
      "Ġrein": 7570,
      "Ġguess": 7571,
      "jack": 7572,
      "256": 7573,
      "Ġacts": 7574,
      "Ġmusicians": 7575,
      "ĠReb": 7576,
      "Ġpartner": 7577,
      "1994": 7578,
      "Ġapplication": 7579,
      "hlen": 7580,
      "ĠNorwegian": 7581,
      "Ġsuggests": 7582,
      "Ġfinding": 7583,
      "Ġcircum": 7584,
      "EM": 7585,
      "oria": 7586,
      "Ġspot": 7587,
      "Ġscheduled": 7588,
      "Ġhorse": 7589,
      "Ġspeech": 7590,
      "Ġcart": 7591,
      "Ġfaced": 7592,
      "Ġsignificantly": 7593,
      "138": 7594,
      "Ġvoted": 7595,
      "ĠLib": 7596,
      "ographical": 7597,
      "Ġload": 7598,
      "Ġburn": 7599,
      "ĠFarm": 7600,
      "/~": 7601,
      "Gu": 7602,
      "Ġplot": 7603,
      "engers": 7604,
      "ando": 7605,
      "Ġdriver": 7606,
      "ĠMissouri": 7607,
      "ĠPict": 7608,
      "Ġcalls": 7609,
      "ÑĤ": 7610,
      "ĠHoward": 7611,
      "Ġlyrics": 7612,
      "ĠRepresentatives": 7613,
      "ivals": 7614,
      "Ġinters": 7615,
      "Ġonto": 7616,
      "Ġsupply": 7617,
      "Ġspect": 7618,
      "ĠMatthew": 7619,
      "ĠSquare": 7620,
      "ĠAmericans": 7621,
      "155": 7622,
      "igration": 7623,
      "Ġfailure": 7624,
      "Ġwidth": 7625,
      "CA": 7626,
      "music": 7627,
      "ingham": 7628,
      "Ġcells": 7629,
      "Ġgod": 7630,
      "ĠStaff": 7631,
      "gest": 7632,
      "Ġgall": 7633,
      "ermine": 7634,
      "248": 7635,
      "Ġinaug": 7636,
      "Ġtower": 7637,
      "Ġdefense": 7638,
      "Ġexperienced": 7639,
      "uration": 7640,
      "Ġletters": 7641,
      "mph": 7642,
      "Ġrefused": 7643,
      "igenous": 7644,
      "ĠDeb": 7645,
      "roit": 7646,
      "ĠNorway": 7647,
      "ented": 7648,
      "ummer": 7649,
      "antic": 7650,
      "atab": 7651,
      "ĠJane": 7652,
      "._": 7653,
      "Oct": 7654,
      "Ġshortly": 7655,
      "iliar": 7656,
      "ĠPage": 7657,
      "Ġarguments": 7658,
      "pan": 7659,
      "ĠFac": 7660,
      "ĠSecurity": 7661,
      "Ġdomestic": 7662,
      "oni": 7663,
      "ĠForces": 7664,
      "ĠCra": 7665,
      "Ġrequirements": 7666,
      "Ġexclus": 7667,
      "168": 7668,
      "Ġvolume": 7669,
      "180": 7670,
      "Ġ1934": 7671,
      "urop": 7672,
      "Ġconsult": 7673,
      "Ġbrothers": 7674,
      "Ġcontaining": 7675,
      "!!": 7676,
      "Ġerror": 7677,
      "racy": 7678,
      "ĠInternet": 7679,
      "Ġwiki": 7680,
      "adow": 7681,
      "inema": 7682,
      "how": 7683,
      "Ġclasses": 7684,
      "Ġbiography": 7685,
      "ĠComments": 7686,
      "ĠYouth": 7687,
      "about": 7688,
      "ĠHamilton": 7689,
      "ĠBurn": 7690,
      "ĠSingles": 7691,
      "ĠDonald": 7692,
      "Ġcombat": 7693,
      "Ġsust": 7694,
      "Ġconverted": 7695,
      "Aug": 7696,
      "anging": 7697,
      "Ġ1929": 7698,
      "ĠBaseball": 7699,
      "ewhat": 7700,
      "ĠAndre": 7701,
      "ĠKy": 7702,
      "achelor": 7703,
      "ĠTennessee": 7704,
      "135": 7705,
      "Ġselect": 7706,
      "ĠAgain": 7707,
      "ĠDick": 7708,
      "Ġsubjects": 7709,
      "Ġ1928": 7710,
      "iability": 7711,
      "\"),": 7712,
      "ĠSpeed": 7713,
      "Ġfounding": 7714,
      "Ġkeeping": 7715,
      "Ġconsecutive": 7716,
      "Ġanimals": 7717,
      "âĢİ": 7718,
      "Ġscale": 7719,
      "kov": 7720,
      "ĠMississippi": 7721,
      "ĠDal": 7722,
      "ĠEc": 7723,
      "friend": 7724,
      "Ġdistricts": 7725,
      "Ġthorough": 7726,
      "ĠChannel": 7727,
      "ĠUkrainian": 7728,
      "Ġimag": 7729,
      "ĠDisplayed": 7730,
      "udget": 7731,
      "anny": 7732,
      "ĠCroat": 7733,
      "GE": 7734,
      "Ġcenturies": 7735,
      "396": 7736,
      "itzerland": 7737,
      "227": 7738,
      "Ġcontrast": 7739,
      "rena": 7740,
      "ĠPrix": 7741,
      "ĠJam": 7742,
      "irty": 7743,
      "Ġresc": 7744,
      "Ġvisited": 7745,
      "dy": 7746,
      "ĠBattalion": 7747,
      "Ġneighborhood": 7748,
      "Ġdig": 7749,
      "po": 7750,
      "Ġrough": 7751,
      "elve": 7752,
      "Ġrot": 7753,
      "ĠNag": 7754,
      "Ġsummar": 7755,
      "Ġalignright": 7756,
      "Ġ1910": 7757,
      "inian": 7758,
      "ĠLabor": 7759,
      "election": 7760,
      "Ġvehicle": 7761,
      "anton": 7762,
      "cons": 7763,
      "leton": 7764,
      "opy": 7765,
      "hard": 7766,
      "Ġseeing": 7767,
      "Ġattacked": 7768,
      "Ġlicense": 7769,
      "Ġast": 7770,
      "including": 7771,
      "376": 7772,
      "Ġdeliver": 7773,
      "Ġbroke": 7774,
      "ĠTel": 7775,
      "Ġfranch": 7776,
      "Ġrequires": 7777,
      "ĠPed": 7778,
      "ĠRegister": 7779,
      "Ġrejected": 7780,
      "Ġquant": 7781,
      "Ġbeaut": 7782,
      "ĠKaz": 7783,
      "Ġfinds": 7784,
      "ĠStone": 7785,
      "ĠChall": 7786,
      "ĠSky": 7787,
      "Pl": 7788,
      "á»": 7789,
      "Dr": 7790,
      "pages": 7791,
      "ĠRick": 7792,
      "Mich": 7793,
      "ĠKa": 7794,
      "Ġrom": 7795,
      "ĠPrinc": 7796,
      "nl": 7797,
      "mitted": 7798,
      "Ġpieces": 7799,
      "ĠLabour": 7800,
      "Ġequal": 7801,
      "ĠSaf": 7802,
      "ĠCatal": 7803,
      "ĠSilver": 7804,
      "ĠAnne": 7805,
      "Ġlooked": 7806,
      "ĠAlb": 7807,
      "spot": 7808,
      "Ġmorning": 7809,
      "ilation": 7810,
      "ĠOd": 7811,
      "356": 7812,
      "ĠBry": 7813,
      "1980": 7814,
      "uties": 7815,
      "Ġvehicles": 7816,
      "ĠPortuguese": 7817,
      "Ġfunctions": 7818,
      "Ġmonitor": 7819,
      "bal": 7820,
      "ĠTokyo": 7821,
      "ĠGre": 7822,
      "orrect": 7823,
      "ieval": 7824,
      "ĠMoon": 7825,
      "Ġarrang": 7826,
      "osite": 7827,
      "Ġextremely": 7828,
      "ĠRyan": 7829,
      "ĠVillage": 7830,
      "Ġwants": 7831,
      "ĠManchester": 7832,
      "rett": 7833,
      "oyd": 7834,
      "roke": 7835,
      "abad": 7836,
      "ĠNig": 7837,
      "itelisted": 7838,
      "Ġdemand": 7839,
      "145": 7840,
      "agues": 7841,
      "ĠDur": 7842,
      "ername": 7843,
      "ĠDave": 7844,
      "Ġfemales": 7845,
      "Ġannounc": 7846,
      "person": 7847,
      "Ġenjoy": 7848,
      "Ġ43": 7849,
      "burn": 7850,
      "ĠBrigade": 7851,
      "otic": 7852,
      "Ġgrounds": 7853,
      "Ġconstituency": 7854,
      "obe": 7855,
      "pet": 7856,
      "ĠDoctor": 7857,
      "Ġfashion": 7858,
      "ifer": 7859,
      "gener": 7860,
      "ĠNev": 7861,
      "ĠLeb": 7862,
      "1993": 7863,
      "but": 7864,
      "ĠHas": 7865,
      "blacklist": 7866,
      "Ġadvice": 7867,
      "LC": 7868,
      "Ġ1932": 7869,
      "Ġdetermine": 7870,
      "Par": 7871,
      "Ġpilot": 7872,
      "ĠFern": 7873,
      "otte": 7874,
      "atters": 7875,
      "icide": 7876,
      "ĠPap": 7877,
      "Ġstorm": 7878,
      "SS": 7879,
      "286": 7880,
      "print": 7881,
      "ĠPlaces": 7882,
      "Ġtoward": 7883,
      "Ġinstall": 7884,
      "ĠIslamic": 7885,
      "ĠWikiProject": 7886,
      "Ġmetres": 7887,
      "Ġsettled": 7888,
      "466": 7889,
      "Ġbehavi": 7890,
      "Ġvent": 7891,
      "Ġthrow": 7892,
      "Ġiron": 7893,
      "ĠCheck": 7894,
      "ĠPatrick": 7895,
      "276": 7896,
      "Ġilleg": 7897,
      "ĠJordan": 7898,
      "Ġfolk": 7899,
      "266": 7900,
      "/?": 7901,
      "Ø§": 7902,
      "Ġtalking": 7903,
      "Christ": 7904,
      "ĠKarl": 7905,
      "rus": 7906,
      "Ġexhibition": 7907,
      "307": 7908,
      "Ġholding": 7909,
      "uh": 7910,
      "1992": 7911,
      "Ġdropped": 7912,
      "1989": 7913,
      "Ġcolumn": 7914,
      "So": 7915,
      "185": 7916,
      "bitration": 7917,
      "ĠMontreal": 7918,
      "Ġsituated": 7919,
      "orial": 7920,
      "165": 7921,
      "alu": 7922,
      "ĠPlayer": 7923,
      "oslav": 7924,
      "ĠPa": 7925,
      "345": 7926,
      "Ġreput": 7927,
      "ĠFame": 7928,
      "Ġdensity": 7929,
      "atures": 7930,
      "oom": 7931,
      "General": 7932,
      "ĠAC": 7933,
      "Ġbroken": 7934,
      "cement": 7935,
      "ĠFil": 7936,
      "296": 7937,
      "Ġauthors": 7938,
      "Ġinternal": 7939,
      "309": 7940,
      "ĠShah": 7941,
      "Ġconsisted": 7942,
      "emble": 7943,
      "Ġtool": 7944,
      "ĠLic": 7945,
      "ĠHeart": 7946,
      "ĠStart": 7947,
      "Ġnegoti": 7948,
      "Ġentitled": 7949,
      "Ġsons": 7950,
      "Ġequivalent": 7951,
      "Ġdeleting": 7952,
      "Ġnick": 7953,
      "Ġwish": 7954,
      "Ġcausing": 7955,
      "ĠBush": 7956,
      "Media": 7957,
      "How": 7958,
      "Ġindeed": 7959,
      "igma": 7960,
      "999999999": 7961,
      "ĠBangladesh": 7962,
      "iami": 7963,
      "Ġpull": 7964,
      "ses": 7965,
      "Ġshift": 7966,
      "ĠBerg": 7967,
      "RL": 7968,
      "dam": 7969,
      "ĠJuan": 7970,
      "Ġupdated": 7971,
      "ĠProfessional": 7972,
      "ĠBrun": 7973,
      "ĠChile": 7974,
      "Ġbelief": 7975,
      "inces": 7976,
      "Ġbought": 7977,
      "Ġrecommend": 7978,
      "ĠCost": 7979,
      "ĠColomb": 7980,
      "Ġstock": 7981,
      "ĠFinn": 7982,
      "cia": 7983,
      "Ġfought": 7984,
      "Ġstarts": 7985,
      "inch": 7986,
      "ayer": 7987,
      "ĠSocorro": 7988,
      "Ġjur": 7989,
      "Ġpoly": 7990,
      "Ġwhitelisted": 7991,
      "Ġshape": 7992,
      "ĠGreece": 7993,
      "ĠLINE": 7994,
      "Ġspok": 7995,
      "ĠRoberts": 7996,
      "Ġabsolut": 7997,
      "407": 7998,
      "Co": 7999,
      "ĠBulg": 8000,
      "Ġ{{#": 8001,
      "ĠDVD": 8002,
      "Ġinvasion": 8003,
      "Ġda": 8004,
      "ooking": 8005,
      "Ġthread": 8006,
      "Ġcas": 8007,
      "lahoma": 8008,
      "Ġstrongly": 8009,
      "RE": 8010,
      "umes": 8011,
      "ĠLank": 8012,
      "Ġstands": 8013,
      "West": 8014,
      "ĠLincoln": 8015,
      "Ġindependence": 8016,
      "Ġ1931": 8017,
      "Ġrival": 8018,
      "ĠAbout": 8019,
      "Ant": 8020,
      "ĠNav": 8021,
      "ĠBear": 8022,
      "tered": 8023,
      "Ġdecades": 8024,
      "ĠNaval": 8025,
      "ĠSP": 8026,
      "Ġliterary": 8027,
      "pass": 8028,
      "366": 8029,
      "ĠMaryland": 8030,
      "ĠGard": 8031,
      "game": 8032,
      "Ġcollaboration": 8033,
      "odox": 8034,
      "Ġeconomy": 8035,
      "cf": 8036,
      "ĠCel": 8037,
      "ĠConfeder": 8038,
      "Ġmulti": 8039,
      "Ġperforming": 8040,
      "Ġengaged": 8041,
      "Ġfeet": 8042,
      "Ġ1924": 8043,
      "Ġ1922": 8044,
      "orders": 8045,
      "leph": 8046,
      "ĠTar": 8047,
      "Ġdismiss": 8048,
      "Ġcommissioned": 8049,
      "ĠTaiwan": 8050,
      "Ġviolence": 8051,
      "ĠIM": 8052,
      "ĠLINEAR": 8053,
      "ĠAdditions": 8054,
      "190": 8055,
      "Ġsomewhat": 8056,
      "Ġcru": 8057,
      "atern": 8058,
      "Ġargued": 8059,
      "Ġswim": 8060,
      "Ġlect": 8061,
      "Ġtal": 8062,
      "409": 8063,
      "Ġretirement": 8064,
      "NT": 8065,
      "ĠIndependent": 8066,
      "Ġparticipate": 8067,
      "Ġprepar": 8068,
      "Ġhaven": 8069,
      "word": 8070,
      "cho": 8071,
      "Ġchanging": 8072,
      "Ġdepth": 8073,
      "vard": 8074,
      "AB": 8075,
      "enz": 8076,
      "Port": 8077,
      "007": 8078,
      "scape": 8079,
      "nik": 8080,
      "ÃŃn": 8081,
      "Ġ1927": 8082,
      "Ġstrik": 8083,
      "Ġsave": 8084,
      "ĠRace": 8085,
      "ĠThough": 8086,
      "Tr": 8087,
      "Ġanaly": 8088,
      "ĠRfC": 8089,
      "Ġplanning": 8090,
      "1991": 8091,
      "Ġdefend": 8092,
      "Ġgeneration": 8093,
      "Ġheavily": 8094,
      "174": 8095,
      "Ġapart": 8096,
      "ĠKl": 8097,
      "ĠHarris": 8098,
      "song": 8099,
      "ĠDiego": 8100,
      "ĠDoes": 8101,
      "ĠYes": 8102,
      "Ġexplained": 8103,
      "iate": 8104,
      "ifican": 8105,
      "iac": 8106,
      "Ġspam": 8107,
      "ĠErn": 8108,
      "Ġphase": 8109,
      "ĠChildren": 8110,
      "Ġcriminal": 8111,
      "203": 8112,
      "aire": 8113,
      "onymous": 8114,
      "Ġcore": 8115,
      "enh": 8116,
      "ĠVin": 8117,
      "386": 8118,
      "anes": 8119,
      "rine": 8120,
      "194": 8121,
      "Ġ400": 8122,
      "ĠCarr": 8123,
      "Ġdrop": 8124,
      "ĠâĢĺ": 8125,
      "ĠKevin": 8126,
      "ĠArk": 8127,
      "Ġadvant": 8128,
      "ĠSwitzerland": 8129,
      "ĠStory": 8130,
      "Ġmaximum": 8131,
      "Ġkil": 8132,
      "BOT": 8133,
      "ĠThu": 8134,
      "elson": 8135,
      "486": 8136,
      "ĠSin": 8137,
      "ĠSelected": 8138,
      "ĠKon": 8139,
      "allel": 8140,
      "Ġdescribes": 8141,
      "228": 8142,
      "ificance": 8143,
      "ĠOnce": 8144,
      "iments": 8145,
      "ĠOfficer": 8146,
      "Ġvac": 8147,
      "compl": 8148,
      "ographics": 8149,
      "397": 8150,
      "ĠBowl": 8151,
      "Ġmand": 8152,
      "Ġconcerned": 8153,
      "Paul": 8154,
      "Ġlake": 8155,
      "ĠGuy": 8156,
      "Ġreign": 8157,
      "ĠSn": 8158,
      "aby": 8159,
      "Ġsymbol": 8160,
      "ĠDh": 8161,
      "Ġcomput": 8162,
      "aved": 8163,
      "Ġaged": 8164,
      "257": 8165,
      "ureau": 8166,
      "ossible": 8167,
      "Ġherself": 8168,
      "Ġreviewed": 8169,
      "usal": 8170,
      "ĠWy": 8171,
      "204": 8172,
      "fortun": 8173,
      "Ġunf": 8174,
      "angel": 8175,
      "ĠQueensland": 8176,
      "Ġ72": 8177,
      "Ġproperties": 8178,
      "ĠHotel": 8179,
      "Ð¾Ð": 8180,
      "iday": 8181,
      "Ġclosely": 8182,
      "Ġ1921": 8183,
      "ĠGordon": 8184,
      "ĠMach": 8185,
      "Ġestablishment": 8186,
      "357": 8187,
      "ĠMoore": 8188,
      "ĠJesus": 8189,
      "Ġpand": 8190,
      "ĠRub": 8191,
      ".[": 8192,
      "Ġsought": 8193,
      "202": 8194,
      "iamond": 8195,
      "race": 8196,
      "Ġphotograph": 8197,
      "ourney": 8198,
      "ĠNP": 8199,
      "ĠVice": 8200,
      "Ġgone": 8201,
      "Ġcorner": 8202,
      "Ġreality": 8203,
      "rowd": 8204,
      "iry": 8205,
      "ĠGlobal": 8206,
      "ĠHouston": 8207,
      "Ġ1923": 8208,
      "ĠLieutenant": 8209,
      "ĠÃī": 8210,
      "Ġox": 8211,
      "Ġcam": 8212,
      "Ġvo": 8213,
      "Ġ*::": 8214,
      "ounded": 8215,
      "225": 8216,
      "367": 8217,
      "ĠAntonio": 8218,
      "ĠHi": 8219,
      "Ġ1925": 8220,
      "ĠNet": 8221,
      "Ġkeyboard": 8222,
      "?)": 8223,
      "Ġtouchdown": 8224,
      "ĠRugby": 8225,
      "Ġfil": 8226,
      "Ġdecor": 8227,
      "Ġhero": 8228,
      "456": 8229,
      "ĠMagazine": 8230,
      "chant": 8231,
      "ifies": 8232,
      "Ġ1912": 8233,
      "Ag": 8234,
      "ĠExpress": 8235,
      "invol": 8236,
      "AE": 8237,
      "rav": 8238,
      "Ġmel": 8239,
      "ĠStu": 8240,
      "476": 8241,
      "Ġcontroversial": 8242,
      "Ġtribut": 8243,
      "who": 8244,
      "Ġoccurs": 8245,
      "Ġguard": 8246,
      "Ġsuccessfully": 8247,
      "170": 8248,
      "Ġmine": 8249,
      "Ġintern": 8250,
      "Ġpowers": 8251,
      "Ġnuclear": 8252,
      "redited": 8253,
      "ailand": 8254,
      "ĠDanish": 8255,
      "ĠAdditionally": 8256,
      "Ġcreator": 8257,
      "Ġtrees": 8258,
      "ĠFe": 8259,
      "Ġbacking": 8260,
      "Ġassume": 8261,
      "icon": 8262,
      "Ġcitation": 8263,
      "ĠPC": 8264,
      "sl": 8265,
      "Ġpersonnel": 8266,
      "ĠTun": 8267,
      "bass": 8268,
      "abama": 8269,
      "host": 8270,
      "Feb": 8271,
      "Ġ1926": 8272,
      "omm": 8273,
      "ĠGon": 8274,
      "Ġabandoned": 8275,
      "ĠPhill": 8276,
      "ĠDa": 8277,
      "Ġwinter": 8278,
      "Ġinhabit": 8279,
      "ayan": 8280,
      "Ġfinishing": 8281,
      "olly": 8282,
      "ĠPrior": 8283,
      "Ġselection": 8284,
      "Ġoccupied": 8285,
      "umin": 8286,
      "Ġceremony": 8287,
      "Ġpowerful": 8288,
      "ĠDouglas": 8289,
      "Ġinjured": 8290,
      "âĢ¢": 8291,
      "Ġobserv": 8292,
      "Ġenvironmental": 8293,
      "inking": 8294,
      "279": 8295,
      "Ġpeer": 8296,
      "Ġleads": 8297,
      "Ġmedian": 8298,
      "Ãł": 8299,
      "Ġwilling": 8300,
      "Ġroof": 8301,
      "wid": 8302,
      "ĠArchitect": 8303,
      "ĠPope": 8304,
      "ĠBrazilian": 8305,
      "ĠSamuel": 8306,
      "uerto": 8307,
      "267": 8308,
      "iful": 8309,
      "Ġhighlight": 8310,
      "ĠâĢĶ&": 8311,
      "ĠVo": 8312,
      "359": 8313,
      "Br": 8314,
      "ĠMotor": 8315,
      "master": 8316,
      "ĠMicro": 8317,
      "333": 8318,
      "ĠAlexand": 8319,
      "ĠHockey": 8320,
      "Ġneither": 8321,
      "ĠIowa": 8322,
      "ĠProm": 8323,
      "Ġderived": 8324,
      "Aust": 8325,
      "acr": 8326,
      "ĠFeat": 8327,
      "379": 8328,
      "377": 8329,
      "ĠIndonesia": 8330,
      "bat": 8331,
      "ĠKentucky": 8332,
      "ĠKelly": 8333,
      "III": 8334,
      "ublin": 8335,
      "Ġinvited": 8336,
      "ĠSud": 8337,
      "269": 8338,
      "ĠTerrit": 8339,
      "Ġrear": 8340,
      "387": 8341,
      "Ġfoundation": 8342,
      "Ġobl": 8343,
      "Ġgender": 8344,
      "eler": 8345,
      "uly": 8346,
      "Ġmanner": 8347,
      "ti": 8348,
      "Fl": 8349,
      "Ġdeprod": 8350,
      "uru": 8351,
      "Ġaffected": 8352,
      "216": 8353,
      "ĠAnna": 8354,
      "ĠFal": 8355,
      "wealth": 8356,
      "ĠAge": 8357,
      "277": 8358,
      "ĠRab": 8359,
      "Ġgain": 8360,
      "Ġcomposition": 8361,
      "Ġtemperature": 8362,
      "Ġremoving": 8363,
      "140": 8364,
      "Ġpartnership": 8365,
      "Ġfunding": 8366,
      "dale": 8367,
      "Ġstadium": 8368,
      "Ġcontained": 8369,
      "144": 8370,
      "aked": 8371,
      "497": 8372,
      "Ġglass": 8373,
      "James": 8374,
      "amic": 8375,
      "ĠInn": 8376,
      "Apr": 8377,
      "ĠHonours": 8378,
      "Ġweak": 8379,
      "Ġ1916": 8380,
      "Ġvalues": 8381,
      "ogen": 8382,
      "ĠLocal": 8383,
      "Ġopera": 8384,
      "Ġblocks": 8385,
      "Ġ1915": 8386,
      "inally": 8387,
      "ĠRecord": 8388,
      "Ġfresh": 8389,
      "ashi": 8390,
      "Ġworldwide": 8391,
      "aman": 8392,
      "ĠSwiss": 8393,
      "father": 8394,
      "Ġtrip": 8395,
      "193": 8396,
      "Ġsecretary": 8397,
      "Ġwriters": 8398,
      "To": 8399,
      "mouth": 8400,
      "1987": 8401,
      "CH": 8402,
      "Ġclosing": 8403,
      "ĠOm": 8404,
      "ĠAfghan": 8405,
      "800": 8406,
      "ĠFriend": 8407,
      "elli": 8408,
      "Rober": 8409,
      "vision": 8410,
      "389": 8411,
      "Ġrise": 8412,
      "azon": 8413,
      "Ġ*...": 8414,
      "Ä«": 8415,
      "Ġblog": 8416,
      "}{": 8417,
      "Ġemp": 8418,
      "Ġreviewer": 8419,
      "ĠBuck": 8420,
      "Ġpremiered": 8421,
      "ideos": 8422,
      "Aut": 8423,
      "Ġterror": 8424,
      "Ġinterests": 8425,
      "Ġexpression": 8426,
      "ĠImperial": 8427,
      "ĠDetroit": 8428,
      "uki": 8429,
      "369": 8430,
      "ĠUpon": 8431,
      "ĠBeat": 8432,
      "Ġthousands": 8433,
      "Ġfuel": 8434,
      "ĠTue": 8435,
      "Ġagency": 8436,
      "Ġkick": 8437,
      "North": 8438,
      "Ġdeveloping": 8439,
      "enez": 8440,
      "formed": 8441,
      "Ġseconds": 8442,
      "ĠTit": 8443,
      "ugs": 8444,
      "ĠConc": 8445,
      "Ġclassical": 8446,
      "ugu": 8447,
      "ifle": 8448,
      "Ġhappen": 8449,
      "Ġreduce": 8450,
      "Ġdynasty": 8451,
      "ownt": 8452,
      "Ġfictional": 8453,
      "spir": 8454,
      "Ġhotel": 8455,
      "odge": 8456,
      "final": 8457,
      "arsh": 8458,
      "oust": 8459,
      "Ã´": 8460,
      "ĠOklahoma": 8461,
      "ogy": 8462,
      "ĠRang": 8463,
      "Ġintroduction": 8464,
      "iler": 8465,
      "Ġwithdraw": 8466,
      "Ġdepict": 8467,
      "ĠStew": 8468,
      "Ġcooper": 8469,
      "Ġcomic": 8470,
      "ĠHonor": 8471,
      "ĠLaure": 8472,
      "ĠCooper": 8473,
      "Ġbriefly": 8474,
      "keep": 8475,
      "SI": 8476,
      "apted": 8477,
      "acent": 8478,
      "Ġprofession": 8479,
      "uda": 8480,
      "ĠExecutive": 8481,
      "Ġcollected": 8482,
      "Ġoffices": 8483,
      "rik": 8484,
      "ĠInformation": 8485,
      "Ġshall": 8486,
      "Ġwealth": 8487,
      "icated": 8488,
      "Ġguns": 8489,
      "Ġoccas": 8490,
      "Ġeg": 8491,
      "154": 8492,
      "297": 8493,
      "Ġtor": 8494,
      "othe": 8495,
      "ĠJosÃ©": 8496,
      "Ġsurvey": 8497,
      "Ġ99": 8498,
      "atherine": 8499,
      "orf": 8500,
      "Ġrecip": 8501,
      "gers": 8502,
      "Ġusage": 8503,
      "March": 8504,
      "Ġhappy": 8505,
      "Ġinfluenced": 8506,
      "Ġdeploy": 8507,
      "Ġdeproded": 8508,
      "ĠMrs": 8509,
      "ĠIT": 8510,
      "then": 8511,
      "Ġring": 8512,
      "publ": 8513,
      "Ġdescribe": 8514,
      "ĠCru": 8515,
      "ovo": 8516,
      "ĠCow": 8517,
      "ĠHop": 8518,
      "Ġfavour": 8519,
      "Ġreception": 8520,
      "Ġweapons": 8521,
      "ĠFund": 8522,
      "Ġ76": 8523,
      "unc": 8524,
      "Ġchampions": 8525,
      "Ġjunior": 8526,
      "Ġincorporated": 8527,
      "ctors": 8528,
      "Ġunsourced": 8529,
      "ĠNative": 8530,
      "Ġgirls": 8531,
      "Ġpraised": 8532,
      "ĠAy": 8533,
      "Ġaid": 8534,
      "308": 8535,
      "Ġensure": 8536,
      "bet": 8537,
      "Ġresigned": 8538,
      "istant": 8539,
      "otion": 8540,
      "Go": 8541,
      "ĠLiberal": 8542,
      "oca": 8543,
      "hesis": 8544,
      "ĠHom": 8545,
      "213": 8546,
      "ĠArgentina": 8547,
      "ĠPur": 8548,
      "olt": 8549,
      "Ġmyth": 8550,
      "Ġpandemic": 8551,
      "encing": 8552,
      "World": 8553,
      "ĠNar": 8554,
      "Ġmaintained": 8555,
      "cd": 8556,
      "aste": 8557,
      "nold": 8558,
      "Ġwarring": 8559,
      "review": 8560,
      "ĠPlace": 8561,
      "Ġshouldn": 8562,
      "Ġgenerate": 8563,
      "184": 8564,
      "Che": 8565,
      "1986": 8566,
      "ĠWhit": 8567,
      "ĠMaur": 8568,
      "ducing": 8569,
      "Jo": 8570,
      "ĠGa": 8571,
      "fire": 8572,
      "Ġcastle": 8573,
      "uster": 8574,
      "Ġparticipation": 8575,
      "ĠHale": 8576,
      "ĠDenmark": 8577,
      "ĠDC": 8578,
      "ĠQuality": 8579,
      "ĠRy": 8580,
      "ĠFrederick": 8581,
      "469": 8582,
      "thodox": 8583,
      "Ġcompete": 8584,
      "ribution": 8585,
      "ultan": 8586,
      "ĠMcK": 8587,
      "Ġoffensive": 8588,
      "Ġcontroversy": 8589,
      "Ġ1911": 8590,
      "Ġreasonable": 8591,
      "hand": 8592,
      "roc": 8593,
      "ĠCommunic": 8594,
      "country": 8595,
      "ĠAdministration": 8596,
      "ĠRailroad": 8597,
      "orig": 8598,
      "ĠShip": 8599,
      "ĠBeg": 8600,
      "143": 8601,
      "Ġrandom": 8602,
      "apes": 8603,
      "ĠThus": 8604,
      "ĠMiami": 8605,
      "Ġabuse": 8606,
      "MP": 8607,
      "astructure": 8608,
      "One": 8609,
      "ceived": 8610,
      "orage": 8611,
      "ĠAT": 8612,
      "stances": 8613,
      "Ġemployed": 8614,
      "orst": 8615,
      "ĠMarine": 8616,
      "Ġsell": 8617,
      "Ġdocuments": 8618,
      "487": 8619,
      "ĠKer": 8620,
      "ĠOur": 8621,
      "Ġopposite": 8622,
      "Ġjoining": 8623,
      "ĠRS": 8624,
      "ĠPalace": 8625,
      "183": 8626,
      "iri": 8627,
      "287": 8628,
      "Ġconcluded": 8629,
      "Ġsubstantial": 8630,
      "ĠLtd": 8631,
      "ithuan": 8632,
      "Ġped": 8633,
      "249": 8634,
      "1979": 8635,
      "ĠIvan": 8636,
      "ĠIron": 8637,
      "ĠMayor": 8638,
      "ĠLas": 8639,
      "hammad": 8640,
      "ĠMean": 8641,
      "Ġsignificance": 8642,
      "Ġtall": 8643,
      "Ġpersons": 8644,
      "ĠGib": 8645,
      "ĠTrip": 8646,
      "Ġbands": 8647,
      "ĠWalker": 8648,
      "Ġprime": 8649,
      "477": 8650,
      "ĠLyn": 8651,
      "ige": 8652,
      "Ġinvolving": 8653,
      "ĠBox": 8654,
      "\"?": 8655,
      "Ġpromotional": 8656,
      "Ġnominator": 8657,
      "Ġobjects": 8658,
      "anim": 8659,
      "Ġcauses": 8660,
      "1988": 8661,
      "467": 8662,
      "Ġorders": 8663,
      "Ġreserve": 8664,
      "Ġstrength": 8665,
      "ĠCEO": 8666,
      "Ġcorpor": 8667,
      "Ġprogramme": 8668,
      "aduate": 8669,
      "Ġvoting": 8670,
      "ĠCulture": 8671,
      "orrow": 8672,
      "ĠAP": 8673,
      "Ac": 8674,
      "omie": 8675,
      "team": 8676,
      "names": 8677,
      "Ġcompetitions": 8678,
      "Ġ1913": 8679,
      "umer": 8680,
      "Ġactivist": 8681,
      "ĠArena": 8682,
      "Ġstanding": 8683,
      "Ġsector": 8684,
      "ipped": 8685,
      "--------": 8686,
      "Ġsounds": 8687,
      "high": 8688,
      "489": 8689,
      "ĠAlban": 8690,
      "Ġthinking": 8691,
      "isms": 8692,
      "Ġanimal": 8693,
      "Ġels": 8694,
      "Ġchemical": 8695,
      "Ġbishop": 8696,
      "rong": 8697,
      "ogether": 8698,
      "olutions": 8699,
      "fa": 8700,
      "ĠMand": 8701,
      "Ġopportunity": 8702,
      "Ġassistance": 8703,
      "Ġfranchise": 8704,
      "sites": 8705,
      "Ġregarded": 8706,
      "255": 8707,
      "ĠAlabama": 8708,
      "ĠWard": 8709,
      "lon": 8710,
      "ĠDisney": 8711,
      "Ġhelpful": 8712,
      "405": 8713,
      "pace": 8714,
      "Requests": 8715,
      "umbent": 8716,
      "ĠStudios": 8717,
      "479": 8718,
      "âļ": 8719,
      "ĠKo": 8720,
      "exual": 8721,
      "erves": 8722,
      "uzz": 8723,
      "Ġ58": 8724,
      "Gl": 8725,
      "igious": 8726,
      "ĠThailand": 8727,
      "ĠSi": 8728,
      "Dan": 8729,
      "aks": 8730,
      "isi": 8731,
      "Ġenemy": 8732,
      "ĠTig": 8733,
      "ĠOrchestra": 8734,
      "eters": 8735,
      "ĠFel": 8736,
      "ĠGrant": 8737,
      "Ġchose": 8738,
      "ĠUC": 8739,
      "173": 8740,
      "259": 8741,
      "164": 8742,
      "ĠHunt": 8743,
      "Ġhighway": 8744,
      "vy": 8745,
      "football": 8746,
      "ĠObl": 8747,
      "FM": 8748,
      "Ġsche": 8749,
      "rolling": 8750,
      "ping": 8751,
      "DP": 8752,
      "omas": 8753,
      "RT": 8754,
      "Ġwalls": 8755,
      "Ġbatter": 8756,
      "Ġbenefit": 8757,
      "ĠSarah": 8758,
      "allas": 8759,
      "ĠMission": 8760,
      "408": 8761,
      "amples": 8762,
      "ĠJohann": 8763,
      "osm": 8764,
      "oved": 8765,
      "ĠMembers": 8766,
      "opping": 8767,
      "Ġdetailed": 8768,
      "Ġmales": 8769,
      "Ġsentences": 8770,
      "Ġtranslated": 8771,
      "ahn": 8772,
      "!)": 8773,
      "Phil": 8774,
      "Ġstub": 8775,
      "phan": 8776,
      "239": 8777,
      "GBT": 8778,
      "umar": 8779,
      "Ġcovering": 8780,
      "she": 8781,
      "Ġexplicit": 8782,
      "Fran": 8783,
      "ocracy": 8784,
      "Ġbrown": 8785,
      "134": 8786,
      "Ġarran": 8787,
      "Ġsail": 8788,
      "ĠQuebec": 8789,
      "Ġreaching": 8790,
      "Do": 8791,
      "ĠHawai": 8792,
      "ĠReserve": 8793,
      "info": 8794,
      "itchell": 8795,
      "Ġsoci": 8796,
      "ĠBelgium": 8797,
      "Ġpoetry": 8798,
      "Ġassign": 8799,
      "Ġquote": 8800,
      "Ġcommunication": 8801,
      "ĠLegislative": 8802,
      "Ġpron": 8803,
      "arner": 8804,
      "million": 8805,
      "Ġfleet": 8806,
      "olph": 8807,
      "urday": 8808,
      "Yes": 8809,
      "ĠSection": 8810,
      "254": 8811,
      "Ġelsewhere": 8812,
      "ĠKnight": 8813,
      "Ã¶r": 8814,
      "ĠFormer": 8815,
      "orer": 8816,
      "uses": 8817,
      "Ġcaption": 8818,
      "doc": 8819,
      "ĠFM": 8820,
      "Ġvalley": 8821,
      "Ġobviously": 8822,
      "ĠDead": 8823,
      "ĠAL": 8824,
      "Ġdrawn": 8825,
      "ĠEnvironment": 8826,
      "icut": 8827,
      "Ġplus": 8828,
      "Ġobserved": 8829,
      "ÅŁ": 8830,
      "996": 8831,
      "Ġax": 8832,
      "Ġfacts": 8833,
      "Ġtheore": 8834,
      "ĠKings": 8835,
      "inburgh": 8836,
      "Ġunus": 8837,
      "ĠCook": 8838,
      "asi": 8839,
      "ĠLang": 8840,
      "enberg": 8841,
      "secut": 8842,
      "Ġancest": 8843,
      "Ġongoing": 8844,
      "Ġconvent": 8845,
      "ĠPitts": 8846,
      "issance": 8847,
      "lang": 8848,
      "jackbot": 8849,
      "Ġphilosophy": 8850,
      "ads": 8851,
      "push": 8852,
      "EFA": 8853,
      "ĠCit": 8854,
      "Ġfiled": 8855,
      "Ġdram": 8856,
      "Ġsun": 8857,
      "Ġinstalled": 8858,
      "ĠRow": 8859,
      "Ġminute": 8860,
      "Draft": 8861,
      "ĠWelsh": 8862,
      "ĠPortugal": 8863,
      "Ġdeputy": 8864,
      "cuss": 8865,
      "Ġexcell": 8866,
      "agg": 8867,
      "Ġbringing": 8868,
      "Thanks": 8869,
      "Ġassumed": 8870,
      "Ġcommitted": 8871,
      "Ġready": 8872,
      "998": 8873,
      "Ġbodies": 8874,
      "Ġeye": 8875,
      "imore": 8876,
      "Ġprice": 8877,
      "Ġruled": 8878,
      "Ġ150": 8879,
      "Ġregularly": 8880,
      "iah": 8881,
      "resents": 8882,
      "ĠMedicine": 8883,
      "ĠStudio": 8884,
      "ĠPuerto": 8885,
      "Ġconsisting": 8886,
      "Ġlaid": 8887,
      "riel": 8888,
      "Ġsession": 8889,
      "Ġunn": 8890,
      "Ġresign": 8891,
      "ĠTrib": 8892,
      "ĠConnect": 8893,
      "Ġhlist": 8894,
      "378": 8895,
      "^{": 8896,
      "ĠNAS": 8897,
      "unct": 8898,
      "ĠCommander": 8899,
      "Nav": 8900,
      "Ġentrance": 8901,
      "Ġnewspapers": 8902,
      "Char": 8903,
      "COIBot": 8904,
      "leveland": 8905,
      "Ġguide": 8906,
      "Me": 8907,
      "ĠArb": 8908,
      "ĠRural": 8909,
      "ĠHoll": 8910,
      "457": 8911,
      "Ġchair": 8912,
      "Ġescape": 8913,
      "ĠGarden": 8914,
      "Ġboat": 8915,
      "Ġsteel": 8916,
      "ĠDeputy": 8917,
      "Ġemployees": 8918,
      "Jos": 8919,
      "August": 8920,
      "Ġsale": 8921,
      "ĠEver": 8922,
      "Ġexception": 8923,
      "intend": 8924,
      "egas": 8925,
      "ront": 8926,
      "Ġtennis": 8927,
      "Ġmotion": 8928,
      "tenance": 8929,
      "Ġsourcing": 8930,
      "ĠLanc": 8931,
      "Ġstopped": 8932,
      "153": 8933,
      "ĠLawrence": 8934,
      "Ġfairly": 8935,
      "Res": 8936,
      "amo": 8937,
      "288": 8938,
      "ugar": 8939,
      "Ġheat": 8940,
      "Ġexplanation": 8941,
      "Ġactors": 8942,
      "appy": 8943,
      "ĠGram": 8944,
      "ushed": 8945,
      "Ġwhatever": 8946,
      "ĠWW": 8947,
      "Feat": 8948,
      "278": 8949,
      "ĠKnow": 8950,
      "ĠROOT": 8951,
      "ivia": 8952,
      "Ġshell": 8953,
      "Ġtypical": 8954,
      "Ġseventh": 8955,
      "Ġpassenger": 8956,
      "?\"": 8957,
      "auc": 8958,
      "350": 8959,
      "459": 8960,
      "ĠHills": 8961,
      "Ġintelligence": 8962,
      "ovation": 8963,
      "ĠRoger": 8964,
      "Ġentries": 8965,
      "town": 8966,
      "onian": 8967,
      "likely": 8968,
      "Ġanyway": 8969,
      "ĠBuddh": 8970,
      "ML": 8971,
      "Ġintent": 8972,
      "Ġreader": 8973,
      "289": 8974,
      "ĠChampion": 8975,
      "ĠOttoman": 8976,
      "Ġeducated": 8977,
      "ĠAtlanta": 8978,
      "ĠGener": 8979,
      "ĠHeritage": 8980,
      "Ġresistance": 8981,
      "Ġhumans": 8982,
      "ĠCommonwealth": 8983,
      "ĠSchools": 8984,
      "oda": 8985,
      "anged": 8986,
      "Ġclaiming": 8987,
      "Ġhired": 8988,
      "ifiable": 8989,
      "ĠCensus": 8990,
      "Ġgenre": 8991,
      "Ġreturns": 8992,
      "Ġinhabitants": 8993,
      "Ġexisted": 8994,
      "articles": 8995,
      "ĠEditor": 8996,
      "NO": 8997,
      "away": 8998,
      "Ġacknow": 8999,
      "ussian": 9000,
      "Ġproperly": 9001,
      "Ġcombination": 9002,
      "Ġacid": 9003,
      "pa": 9004,
      "width": 9005,
      "305": 9006,
      "erbai": 9007,
      "Ġfunds": 9008,
      "Ġshooting": 9009,
      "ĠMarie": 9010,
      "argo": 9011,
      "Ġadult": 9012,
      "Ġzone": 9013,
      "Ġdecre": 9014,
      "Ġweather": 9015,
      "Ġdivers": 9016,
      "ferences": 9017,
      "ingly": 9018,
      "Ġpersp": 9019,
      "ĠTreat": 9020,
      "ĠAustrian": 9021,
      "212": 9022,
      "ĠMem": 9023,
      "133": 9024,
      "ĠBureau": 9025,
      "borough": 9026,
      "ently": 9027,
      "Ġtrav": 9028,
      "ĠCompet": 9029,
      "umi": 9030,
      "Ġremoval": 9031,
      "Ġtick": 9032,
      "Ġreaction": 9033,
      "Ġapplications": 9034,
      "illo": 9035,
      "Ġaspects": 9036,
      "ĠMalaysia": 9037,
      "ĠDaily": 9038,
      "rÃ©": 9039,
      "nia": 9040,
      "Ġaddressed": 9041,
      "ĠDean": 9042,
      "acter": 9043,
      "Ġdelay": 9044,
      "ĠBull": 9045,
      "Ġdeleg": 9046,
      "Ġhuge": 9047,
      "358": 9048,
      "Ġphrase": 9049,
      "ĠMargaret": 9050,
      "Ġcatal": 9051,
      "388": 9052,
      "Ġinput": 9053,
      "ĠWindows": 9054,
      "ĠIan": 9055,
      "Ġtransition": 9056,
      "NC": 9057,
      "ricane": 9058,
      "atin": 9059,
      "pm": 9060,
      "Ġflu": 9061,
      "Ġ1908": 9062,
      "Ġorganisation": 9063,
      "oviÄĩ": 9064,
      "ĠTak": 9065,
      "Ġdecide": 9066,
      "Ġoppose": 9067,
      "Ġdecade": 9068,
      "Ġchurches": 9069,
      "Ġskills": 9070,
      "si": 9071,
      "was": 9072,
      "ĠOperation": 9073,
      "Ġpione": 9074,
      "Ġdispl": 9075,
      "Ġsuperv": 9076,
      "orus": 9077,
      "ĠHollywood": 9078,
      "heastern": 9079,
      "Ġmilit": 9080,
      "ĠPrincess": 9081,
      "Ġinternet": 9082,
      "Ġqualify": 9083,
      "Ġindicates": 9084,
      "Ġrevolution": 9085,
      "Ġmobile": 9086,
      "Ġjustice": 9087,
      "antasy": 9088,
      "Af": 9089,
      "abled": 9090,
      "rete": 9091,
      "opter": 9092,
      "cht": 9093,
      "ĠDak": 9094,
      "Ġhair": 9095,
      "368": 9096,
      "Ġstring": 9097,
      "BB": 9098,
      "lett": 9099,
      "Merge": 9100,
      "AG": 9101,
      "ĠFight": 9102,
      "Redirect": 9103,
      "}\\": 9104,
      "ĠHungarian": 9105,
      "Ġflat": 9106,
      "ĠAnomie": 9107,
      "ĠBuff": 9108,
      "ivial": 9109,
      "298": 9110,
      "ĠRights": 9111,
      "ĠGran": 9112,
      "ĠVar": 9113,
      "268": 9114,
      "owned": 9115,
      "avi": 9116,
      "fe": 9117,
      "NN": 9118,
      "long": 9119,
      "Ġscenes": 9120,
      "ĠPack": 9121,
      "Ġinteraction": 9122,
      "Ġpublishing": 9123,
      "raction": 9124,
      "%.": 9125,
      "Ġintention": 9126,
      "Ġinfobox": 9127,
      "ictionary": 9128,
      "ĠFive": 9129,
      "wich": 9130,
      "ĠPersistent": 9131,
      "Ġpaintings": 9132,
      "apelle": 9133,
      "Ġjazz": 9134,
      "Ġturns": 9135,
      "wall": 9136,
      "Ġillustr": 9137,
      "Ġphen": 9138,
      "ĪĴ": 9139,
      "ĠBalt": 9140,
      "ĠTamil": 9141,
      "ucks": 9142,
      "Ġdeaths": 9143,
      "ĠFails": 9144,
      "Ġdevice": 9145,
      "Ġstats": 9146,
      "ĠScient": 9147,
      "Ġproducing": 9148,
      "sport": 9149,
      "Ġ78": 9150,
      "ibl": 9151,
      "ĠCommunist": 9152,
      "Ġguideline": 9153,
      "emen": 9154,
      "rane": 9155,
      "ĠDiff": 9156,
      "Ġfit": 9157,
      "Ġadmitted": 9158,
      "258": 9159,
      "ĠBou": 9160,
      "Ġprize": 9161,
      "ĠNever": 9162,
      "375": 9163,
      "Ġtwelve": 9164,
      "ĠMes": 9165,
      "ilk": 9166,
      "George": 9167,
      "Ġlocomot": 9168,
      "RP": 9169,
      "Ġtack": 9170,
      "ĠColonel": 9171,
      "LE": 9172,
      "365": 9173,
      "ĠFall": 9174,
      "oche": 9175,
      "997": 9176,
      "Ġrowspan": 9177,
      "sq": 9178,
      "fare": 9179,
      "Ġsockpuppets": 9180,
      "224": 9181,
      "ĠAlfred": 9182,
      "ebr": 9183,
      "Ġlegit": 9184,
      "rehens": 9185,
      "ablished": 9186,
      "Ġparticipants": 9187,
      "oba": 9188,
      "ĠYouT": 9189,
      "Ġclassification": 9190,
      "jection": 9191,
      "1977": 9192,
      "163": 9193,
      "Ġcharges": 9194,
      "398": 9195,
      "UK": 9196,
      "ĠKu": 9197,
      "ĠAM": 9198,
      "ĠNep": 9199,
      "ĠReason": 9200,
      "ĠTournament": 9201,
      "ĠAdvent": 9202,
      "ilarly": 9203,
      "Ġmatters": 9204,
      "ĠVik": 9205,
      "Ġtries": 9206,
      "ĠVideo": 9207,
      "ĠCarter": 9208,
      "Ġreleases": 9209,
      "1985": 9210,
      "Rich": 9211,
      "Ġdistributed": 9212,
      "ĠBoys": 9213,
      "ĠHell": 9214,
      "acon": 9215,
      "ĠSteel": 9216,
      "Ġprove": 9217,
      "Ġcontrolled": 9218,
      "ete": 9219,
      "arma": 9220,
      "Ġanth": 9221,
      "Ġhelps": 9222,
      "orton": 9223,
      "ĠInvest": 9224,
      "Ġcrisis": 9225,
      "sequ": 9226,
      "owntown": 9227,
      "ĠPy": 9228,
      "Comm": 9229,
      "ners": 9230,
      "1970": 9231,
      "Ġpriest": 9232,
      "ĠCrown": 9233,
      "Ġscholar": 9234,
      "ivate": 9235,
      "Ġeyes": 9236,
      "mo": 9237,
      "ĠMorgan": 9238,
      "215": 9239,
      "Ġproved": 9240,
      "aware": 9241,
      "isode": 9242,
      "Ġbehaviour": 9243,
      "Ġgrad": 9244,
      "ĠRud": 9245,
      "ĠChart": 9246,
      "first": 9247,
      "imp": 9248,
      "Ġrepresents": 9249,
      "Ġbudget": 9250,
      "Ġdepend": 9251,
      "ellite": 9252,
      "ĠRead": 9253,
      "Ġmeasures": 9254,
      "ĠRussell": 9255,
      "Ġchallenge": 9256,
      "Ġdefeating": 9257,
      "ĠTan": 9258,
      "ĠCampbell": 9259,
      "Ġcapture": 9260,
      "eland": 9261,
      "DA": 9262,
      "mers": 9263,
      "Ġarmed": 9264,
      "ĠGirls": 9265,
      "Ġedge": 9266,
      "Ġqualifying": 9267,
      "arrant": 9268,
      "355": 9269,
      "ĠLouisiana": 9270,
      "ĠLl": 9271,
      "ĠPeace": 9272,
      "Ġreferring": 9273,
      "Ġfrequ": 9274,
      "Ġ1890": 9275,
      "Ġresidence": 9276,
      "Ġtreated": 9277,
      "endment": 9278,
      "ĠFried": 9279,
      "ĠEqu": 9280,
      "white": 9281,
      "360": 9282,
      "Ġanniversary": 9283,
      "Ġ67": 9284,
      "pat": 9285,
      "ĠDublin": 9286,
      "itored": 9287,
      "ĠCase": 9288,
      "ĠConstitution": 9289,
      "obi": 9290,
      "223": 9291,
      "Ġmerely": 9292,
      "Ġcou": 9293,
      "265": 9294,
      "Ġ69": 9295,
      "din": 9296,
      "grade": 9297,
      "Ġoccupation": 9298,
      "block": 9299,
      "Ġfamiliar": 9300,
      "Ġaccompan": 9301,
      "Ġoperate": 9302,
      "ĠKan": 9303,
      "Ġmole": 9304,
      "ĠAgric": 9305,
      "498": 9306,
      "Ġdie": 9307,
      "ĠPeters": 9308,
      "Ġarchae": 9309,
      "Ġcredit": 9310,
      "Ġtun": 9311,
      "488": 9312,
      "Ġbusinessman": 9313,
      "Ġdog": 9314,
      "ĠMetropolitan": 9315,
      "mail": 9316,
      "ĠPear": 9317,
      "care": 9318,
      "Ġru": 9319,
      "ĠDefense": 9320,
      "Ġadvertising": 9321,
      "Ġpatients": 9322,
      "Ġessay": 9323,
      "cm": 9324,
      "ested": 9325,
      "ĠCapital": 9326,
      "Ġhelping": 9327,
      "Robert": 9328,
      "igible": 9329,
      "Ġpure": 9330,
      "agi": 9331,
      "Ġinher": 9332,
      "ĠPersonnel": 9333,
      "umed": 9334,
      "King": 9335,
      "lie": 9336,
      "Ġfalls": 9337,
      "Ġdoor": 9338,
      "ester": 9339,
      "arest": 9340,
      "December": 9341,
      "Ġpointed": 9342,
      "bach": 9343,
      "tool": 9344,
      "Ġdisagree": 9345,
      "Ġparallel": 9346,
      "Ġdesigner": 9347,
      "****": 9348,
      "Cent": 9349,
      "ĠChem": 9350,
      "Ġpapers": 9351,
      "Ġcrown": 9352,
      "Ġearliest": 9353,
      "var": 9354,
      "ĠMarket": 9355,
      "Best": 9356,
      "Ġmissed": 9357,
      "Ġsoccer": 9358,
      "Ġvisible": 9359,
      "ĠRest": 9360,
      "Ġminimum": 9361,
      "Ġmedicine": 9362,
      "Ġhook": 9363,
      "Ġengines": 9364,
      "ĠIss": 9365,
      "ĠThompson": 9366,
      "];": 9367,
      "ĠOri": 9368,
      "Ġdefinitely": 9369,
      "October": 9370,
      "gt": 9371,
      "ĠEdinburgh": 9372,
      "Ġadvantage": 9373,
      "214": 9374,
      "295": 9375,
      "igs": 9376,
      "Ġinvolvement": 9377,
      "Ġbrain": 9378,
      "zz": 9379,
      "you": 9380,
      "Ġ68": 9381,
      "\",\"": 9382,
      "Ġroutes": 9383,
      "ĠRap": 9384,
      "main": 9385,
      "275": 9386,
      "Ġcool": 9387,
      "othy": 9388,
      "ĠBey": 9389,
      "ugoslav": 9390,
      "iege": 9391,
      "Ġpractices": 9392,
      "Ġclin": 9393,
      "Ġvideos": 9394,
      "478": 9395,
      "iders": 9396,
      "jamin": 9397,
      "avalry": 9398,
      "253": 9399,
      "Ġrelative": 9400,
      "ĠMcG": 9401,
      "ĠAdams": 9402,
      "author": 9403,
      "ĠCole": 9404,
      "Black": 9405,
      "NP": 9406,
      "468": 9407,
      "Ã©n": 9408,
      "Ġownership": 9409,
      "Ġdry": 9410,
      "Ġtransp": 9411,
      "insula": 9412,
      "Ġidentify": 9413,
      "ĠCleveland": 9414,
      "Ãª": 9415,
      "HS": 9416,
      "ĠMetro": 9417,
      "Ġlearned": 9418,
      "Ġfreedom": 9419,
      "240": 9420,
      "German": 9421,
      "Ġpremi": 9422,
      "Ġelement": 9423,
      "thm": 9424,
      "ĠConfederate": 9425,
      "Ġtagged": 9426,
      "Ġmedium": 9427,
      "admin": 9428,
      "ĠStewart": 9429,
      "Ġfactor": 9430,
      "ĠGraham": 9431,
      "TS": 9432,
      "Ġfinals": 9433,
      "aa": 9434,
[...]
